{
  "version": "1.0",
  "truncation": {
    "direction": "Right",
    "max_length": 8,
    "strategy": "LongestFirst",
    "stride": 0
  },
  "padding": null,
  "added_tokens": [
    {
      "id": 0,
      "content": "<pad>",
      "single_word": false,
      "lstrip": false,
      "rstrip": false,
      "normalized": false,
      "special": true
    },
    {
      "id": 1,
      "content": "</s>",
      "single_word": false,
      "lstrip": false,
      "rstrip": false,
      "normalized": false,
      "special": true
    },
    {
      "id": 2,
      "content": "<unk>",
      "single_word": false,
      "lstrip": false,
      "rstrip": false,
      "normalized": false,
      "special": true
    },
    {
      "id": 32003,
      "content": "<extra_id_0>",
      "single_word": false,
      "lstrip": false,
      "rstrip": false,
      "normalized": false,
      "special": true
    },
    {
      "id": 32004,
      "content": "<extra_id_1>",
      "single_word": false,
      "lstrip": false,
      "rstrip": false,
      "normalized": false,
      "special": true
    },
    {
      "id": 32005,
      "content": "<extra_id_2>",
      "single_word": false,
      "lstrip": false,
      "rstrip": false,
      "normalized": false,
      "special": true
    },
    {
      "id": 32006,
      "content": "<extra_id_3>",
      "single_word": false,
      "lstrip": false,
      "rstrip": false,
      "normalized": false,
      "special": true
    },
    {
      "id": 32007,
      "content": "<extra_id_4>",
      "single_word": false,
      "lstrip": false,
      "rstrip": false,
      "normalized": false,
      "special": true
    },
    {
      "id": 32008,
      "content": "<extra_id_5>",
      "single_word": false,
      "lstrip": false,
      "rstrip": false,
      "normalized": false,
      "special": true
    },
    {
      "id": 32009,
      "content": "<extra_id_6>",
      "single_word": false,
      "lstrip": false,
      "rstrip": false,
      "normalized": false,
      "special": true
    },
    {
      "id": 32010,
      "content": "<extra_id_7>",
      "single_word": false,
      "lstrip": false,
      "rstrip": false,
      "normalized": false,
      "special": true
    },
    {
      "id": 32011,
      "content": "<extra_id_8>",
      "single_word": false,
      "lstrip": false,
      "rstrip": false,
      "normalized": false,
      "special": true
    },
    {
      "id": 32012,
      "content": "<extra_id_9>",
      "single_word": false,
      "lstrip": false,
      "rstrip": false,
      "normalized": false,
      "special": true
    },
    {
      "id": 32013,
      "content": "<extra_id_10>",
      "single_word": false,
      "lstrip": false,
      "rstrip": false,
      "normalized": false,
      "special": true
    },
    {
      "id": 32014,
      "content": "<extra_id_11>",
      "single_word": false,
      "lstrip": false,
      "rstrip": false,
      "normalized": false,
      "special": true
    },
    {
      "id": 32015,
      "content": "<extra_id_12>",
      "single_word": false,
      "lstrip": false,
      "rstrip": false,
      "normalized": false,
      "special": true
    },
    {
      "id": 32016,
      "content": "<extra_id_13>",
      "single_word": false,
      "lstrip": false,
      "rstrip": false,
      "normalized": false,
      "special": true
    },
    {
      "id": 32017,
      "content": "<extra_id_14>",
      "single_word": false,
      "lstrip": false,
      "rstrip": false,
      "normalized": false,
      "special": true
    },
    {
      "id": 32018,
      "content": "<extra_id_15>",
      "single_word": false,
      "lstrip": false,
      "rstrip": false,
      "normalized": false,
      "special": true
    },
    {
      "id": 32019,
      "content": "<extra_id_16>",
      "single_word": false,
      "lstrip": false,
      "rstrip": false,
      "normalized": false,
      "special": true
    },
    {
      "id": 32020,
      "content": "<extra_id_17>",
      "single_word": false,
      "lstrip": false,
      "rstrip": false,
      "normalized": false,
      "special": true
    },
    {
      "id": 32021,
      "content": "<extra_id_18>",
      "single_word": false,
      "lstrip": false,
      "rstrip": false,
      "normalized": false,
      "special": true
    },
    {
      "id": 32022,
      "content": "<extra_id_19>",
      "single_word": false,
      "lstrip": false,
      "rstrip": false,
      "normalized": false,
      "special": true
    },
    {
      "id": 32023,
      "content": "<extra_id_20>",
      "single_word": false,
      "lstrip": false,
      "rstrip": false,
      "normalized": false,
      "special": true
    },
    {
      "id": 32024,
      "content": "<extra_id_21>",
      "single_word": false,
      "lstrip": false,
      "rstrip": false,
      "normalized": false,
      "special": true
    },
    {
      "id": 32025,
      "content": "<extra_id_22>",
      "single_word": false,
      "lstrip": false,
      "rstrip": false,
      "normalized": false,
      "special": true
    },
    {
      "id": 32026,
      "content": "<extra_id_23>",
      "single_word": false,
      "lstrip": false,
      "rstrip": false,
      "normalized": false,
      "special": true
    },
    {
      "id": 32027,
      "content": "<extra_id_24>",
      "single_word": false,
      "lstrip": false,
      "rstrip": false,
      "normalized": false,
      "special": true
    },
    {
      "id": 32028,
      "content": "<extra_id_25>",
      "single_word": false,
      "lstrip": false,
      "rstrip": false,
      "normalized": false,
      "special": true
    },
    {
      "id": 32029,
      "content": "<extra_id_26>",
      "single_word": false,
      "lstrip": false,
      "rstrip": false,
      "normalized": false,
      "special": true
    },
    {
      "id": 32030,
      "content": "<extra_id_27>",
      "single_word": false,
      "lstrip": false,
      "rstrip": false,
      "normalized": false,
      "special": true
    },
    {
      "id": 32031,
      "content": "<extra_id_28>",
      "single_word": false,
      "lstrip": false,
      "rstrip": false,
      "normalized": false,
      "special": true
    },
    {
      "id": 32032,
      "content": "<extra_id_29>",
      "single_word": false,
      "lstrip": false,
      "rstrip": false,
      "normalized": false,
      "special": true
    },
    {
      "id": 32033,
      "content": "<extra_id_30>",
      "single_word": false,
      "lstrip": false,
      "rstrip": false,
      "normalized": false,
      "special": true
    },
    {
      "id": 32034,
      "content": "<extra_id_31>",
      "single_word": false,
      "lstrip": false,
      "rstrip": false,
      "normalized": false,
      "special": true
    },
    {
      "id": 32035,
      "content": "<extra_id_32>",
      "single_word": false,
      "lstrip": false,
      "rstrip": false,
      "normalized": false,
      "special": true
    },
    {
      "id": 32036,
      "content": "<extra_id_33>",
      "single_word": false,
      "lstrip": false,
      "rstrip": false,
      "normalized": false,
      "special": true
    },
    {
      "id": 32037,
      "content": "<extra_id_34>",
      "single_word": false,
      "lstrip": false,
      "rstrip": false,
      "normalized": false,
      "special": true
    },
    {
      "id": 32038,
      "content": "<extra_id_35>",
      "single_word": false,
      "lstrip": false,
      "rstrip": false,
      "normalized": false,
      "special": true
    },
    {
      "id": 32039,
      "content": "<extra_id_36>",
      "single_word": false,
      "lstrip": false,
      "rstrip": false,
      "normalized": false,
      "special": true
    },
    {
      "id": 32040,
      "content": "<extra_id_37>",
      "single_word": false,
      "lstrip": false,
      "rstrip": false,
      "normalized": false,
      "special": true
    },
    {
      "id": 32041,
      "content": "<extra_id_38>",
      "single_word": false,
      "lstrip": false,
      "rstrip": false,
      "normalized": false,
      "special": true
    },
    {
      "id": 32042,
      "content": "<extra_id_39>",
      "single_word": false,
      "lstrip": false,
      "rstrip": false,
      "normalized": false,
      "special": true
    },
    {
      "id": 32043,
      "content": "<extra_id_40>",
      "single_word": false,
      "lstrip": false,
      "rstrip": false,
      "normalized": false,
      "special": true
    },
    {
      "id": 32044,
      "content": "<extra_id_41>",
      "single_word": false,
      "lstrip": false,
      "rstrip": false,
      "normalized": false,
      "special": true
    },
    {
      "id": 32045,
      "content": "<extra_id_42>",
      "single_word": false,
      "lstrip": false,
      "rstrip": false,
      "normalized": false,
      "special": true
    },
    {
      "id": 32046,
      "content": "<extra_id_43>",
      "single_word": false,
      "lstrip": false,
      "rstrip": false,
      "normalized": false,
      "special": true
    },
    {
      "id": 32047,
      "content": "<extra_id_44>",
      "single_word": false,
      "lstrip": false,
      "rstrip": false,
      "normalized": false,
      "special": true
    },
    {
      "id": 32048,
      "content": "<extra_id_45>",
      "single_word": false,
      "lstrip": false,
      "rstrip": false,
      "normalized": false,
      "special": true
    },
    {
      "id": 32049,
      "content": "<extra_id_46>",
      "single_word": false,
      "lstrip": false,
      "rstrip": false,
      "normalized": false,
      "special": true
    },
    {
      "id": 32050,
      "content": "<extra_id_47>",
      "single_word": false,
      "lstrip": false,
      "rstrip": false,
      "normalized": false,
      "special": true
    },
    {
      "id": 32051,
      "content": "<extra_id_48>",
      "single_word": false,
      "lstrip": false,
      "rstrip": false,
      "normalized": false,
      "special": true
    },
    {
      "id": 32052,
      "content": "<extra_id_49>",
      "single_word": false,
      "lstrip": false,
      "rstrip": false,
      "normalized": false,
      "special": true
    },
    {
      "id": 32053,
      "content": "<extra_id_50>",
      "single_word": false,
      "lstrip": false,
      "rstrip": false,
      "normalized": false,
      "special": true
    },
    {
      "id": 32054,
      "content": "<extra_id_51>",
      "single_word": false,
      "lstrip": false,
      "rstrip": false,
      "normalized": false,
      "special": true
    },
    {
      "id": 32055,
      "content": "<extra_id_52>",
      "single_word": false,
      "lstrip": false,
      "rstrip": false,
      "normalized": false,
      "special": true
    },
    {
      "id": 32056,
      "content": "<extra_id_53>",
      "single_word": false,
      "lstrip": false,
      "rstrip": false,
      "normalized": false,
      "special": true
    },
    {
      "id": 32057,
      "content": "<extra_id_54>",
      "single_word": false,
      "lstrip": false,
      "rstrip": false,
      "normalized": false,
      "special": true
    },
    {
      "id": 32058,
      "content": "<extra_id_55>",
      "single_word": false,
      "lstrip": false,
      "rstrip": false,
      "normalized": false,
      "special": true
    },
    {
      "id": 32059,
      "content": "<extra_id_56>",
      "single_word": false,
      "lstrip": false,
      "rstrip": false,
      "normalized": false,
      "special": true
    },
    {
      "id": 32060,
      "content": "<extra_id_57>",
      "single_word": false,
      "lstrip": false,
      "rstrip": false,
      "normalized": false,
      "special": true
    },
    {
      "id": 32061,
      "content": "<extra_id_58>",
      "single_word": false,
      "lstrip": false,
      "rstrip": false,
      "normalized": false,
      "special": true
    },
    {
      "id": 32062,
      "content": "<extra_id_59>",
      "single_word": false,
      "lstrip": false,
      "rstrip": false,
      "normalized": false,
      "special": true
    },
    {
      "id": 32063,
      "content": "<extra_id_60>",
      "single_word": false,
      "lstrip": false,
      "rstrip": false,
      "normalized": false,
      "special": true
    },
    {
      "id": 32064,
      "content": "<extra_id_61>",
      "single_word": false,
      "lstrip": false,
      "rstrip": false,
      "normalized": false,
      "special": true
    },
    {
      "id": 32065,
      "content": "<extra_id_62>",
      "single_word": false,
      "lstrip": false,
      "rstrip": false,
      "normalized": false,
      "special": true
    },
    {
      "id": 32066,
      "content": "<extra_id_63>",
      "single_word": false,
      "lstrip": false,
      "rstrip": false,
      "normalized": false,
      "special": true
    },
    {
      "id": 32067,
      "content": "<extra_id_64>",
      "single_word": false,
      "lstrip": false,
      "rstrip": false,
      "normalized": false,
      "special": true
    },
    {
      "id": 32068,
      "content": "<extra_id_65>",
      "single_word": false,
      "lstrip": false,
      "rstrip": false,
      "normalized": false,
      "special": true
    },
    {
      "id": 32069,
      "content": "<extra_id_66>",
      "single_word": false,
      "lstrip": false,
      "rstrip": false,
      "normalized": false,
      "special": true
    },
    {
      "id": 32070,
      "content": "<extra_id_67>",
      "single_word": false,
      "lstrip": false,
      "rstrip": false,
      "normalized": false,
      "special": true
    },
    {
      "id": 32071,
      "content": "<extra_id_68>",
      "single_word": false,
      "lstrip": false,
      "rstrip": false,
      "normalized": false,
      "special": true
    },
    {
      "id": 32072,
      "content": "<extra_id_69>",
      "single_word": false,
      "lstrip": false,
      "rstrip": false,
      "normalized": false,
      "special": true
    },
    {
      "id": 32073,
      "content": "<extra_id_70>",
      "single_word": false,
      "lstrip": false,
      "rstrip": false,
      "normalized": false,
      "special": true
    },
    {
      "id": 32074,
      "content": "<extra_id_71>",
      "single_word": false,
      "lstrip": false,
      "rstrip": false,
      "normalized": false,
      "special": true
    },
    {
      "id": 32075,
      "content": "<extra_id_72>",
      "single_word": false,
      "lstrip": false,
      "rstrip": false,
      "normalized": false,
      "special": true
    },
    {
      "id": 32076,
      "content": "<extra_id_73>",
      "single_word": false,
      "lstrip": false,
      "rstrip": false,
      "normalized": false,
      "special": true
    },
    {
      "id": 32077,
      "content": "<extra_id_74>",
      "single_word": false,
      "lstrip": false,
      "rstrip": false,
      "normalized": false,
      "special": true
    },
    {
      "id": 32078,
      "content": "<extra_id_75>",
      "single_word": false,
      "lstrip": false,
      "rstrip": false,
      "normalized": false,
      "special": true
    },
    {
      "id": 32079,
      "content": "<extra_id_76>",
      "single_word": false,
      "lstrip": false,
      "rstrip": false,
      "normalized": false,
      "special": true
    },
    {
      "id": 32080,
      "content": "<extra_id_77>",
      "single_word": false,
      "lstrip": false,
      "rstrip": false,
      "normalized": false,
      "special": true
    },
    {
      "id": 32081,
      "content": "<extra_id_78>",
      "single_word": false,
      "lstrip": false,
      "rstrip": false,
      "normalized": false,
      "special": true
    },
    {
      "id": 32082,
      "content": "<extra_id_79>",
      "single_word": false,
      "lstrip": false,
      "rstrip": false,
      "normalized": false,
      "special": true
    },
    {
      "id": 32083,
      "content": "<extra_id_80>",
      "single_word": false,
      "lstrip": false,
      "rstrip": false,
      "normalized": false,
      "special": true
    },
    {
      "id": 32084,
      "content": "<extra_id_81>",
      "single_word": false,
      "lstrip": false,
      "rstrip": false,
      "normalized": false,
      "special": true
    },
    {
      "id": 32085,
      "content": "<extra_id_82>",
      "single_word": false,
      "lstrip": false,
      "rstrip": false,
      "normalized": false,
      "special": true
    },
    {
      "id": 32086,
      "content": "<extra_id_83>",
      "single_word": false,
      "lstrip": false,
      "rstrip": false,
      "normalized": false,
      "special": true
    },
    {
      "id": 32087,
      "content": "<extra_id_84>",
      "single_word": false,
      "lstrip": false,
      "rstrip": false,
      "normalized": false,
      "special": true
    },
    {
      "id": 32088,
      "content": "<extra_id_85>",
      "single_word": false,
      "lstrip": false,
      "rstrip": false,
      "normalized": false,
      "special": true
    },
    {
      "id": 32089,
      "content": "<extra_id_86>",
      "single_word": false,
      "lstrip": false,
      "rstrip": false,
      "normalized": false,
      "special": true
    },
    {
      "id": 32090,
      "content": "<extra_id_87>",
      "single_word": false,
      "lstrip": false,
      "rstrip": false,
      "normalized": false,
      "special": true
    },
    {
      "id": 32091,
      "content": "<extra_id_88>",
      "single_word": false,
      "lstrip": false,
      "rstrip": false,
      "normalized": false,
      "special": true
    },
    {
      "id": 32092,
      "content": "<extra_id_89>",
      "single_word": false,
      "lstrip": false,
      "rstrip": false,
      "normalized": false,
      "special": true
    },
    {
      "id": 32093,
      "content": "<extra_id_90>",
      "single_word": false,
      "lstrip": false,
      "rstrip": false,
      "normalized": false,
      "special": true
    },
    {
      "id": 32094,
      "content": "<extra_id_91>",
      "single_word": false,
      "lstrip": false,
      "rstrip": false,
      "normalized": false,
      "special": true
    },
    {
      "id": 32095,
      "content": "<extra_id_92>",
      "single_word": false,
      "lstrip": false,
      "rstrip": false,
      "normalized": false,
      "special": true
    },
    {
      "id": 32096,
      "content": "<extra_id_93>",
      "single_word": false,
      "lstrip": false,
      "rstrip": false,
      "normalized": false,
      "special": true
    },
    {
      "id": 32097,
      "content": "<extra_id_94>",
      "single_word": false,
      "lstrip": false,
      "rstrip": false,
      "normalized": false,
      "special": true
    },
    {
      "id": 32098,
      "content": "<extra_id_95>",
      "single_word": false,
      "lstrip": false,
      "rstrip": false,
      "normalized": false,
      "special": true
    },
    {
      "id": 32099,
      "content": "<extra_id_96>",
      "single_word": false,
      "lstrip": false,
      "rstrip": false,
      "normalized": false,
      "special": true
    },
    {
      "id": 32100,
      "content": "<extra_id_97>",
      "single_word": false,
      "lstrip": false,
      "rstrip": false,
      "normalized": false,
      "special": true
    },
    {
      "id": 32101,
      "content": "<extra_id_98>",
      "single_word": false,
      "lstrip": false,
      "rstrip": false,
      "normalized": false,
      "special": true
    },
    {
      "id": 32102,
      "content": "<extra_id_99>",
      "single_word": false,
      "lstrip": false,
      "rstrip": false,
      "normalized": false,
      "special": true
    }
  ],
  "normalizer": {
    "type": "Sequence",
    "normalizers": [
      {
        "type": "Nmt"
      },
      {
        "type": "NFKC"
      },
      {
        "type": "Replace",
        "pattern": {
          "Regex": " {2,}"
        },
        "content": " "
      },
      {
        "type": "Lowercase"
      }
    ]
  },
  "pre_tokenizer": {
    "type": "Sequence",
    "pretokenizers": [
      {
        "type": "Metaspace",
        "replacement": "▁",
        "add_prefix_space": true
      },
      {
        "type": "Digits",
        "individual_digits": true
      },
      {
        "type": "Punctuation",
        "behavior": "Isolated"
      }
    ]
  },
  "post_processor": {
    "type": "TemplateProcessing",
    "single": [
      {
        "Sequence": {
          "id": "A",
          "type_id": 0
        }
      },
      {
        "SpecialToken": {
          "id": "</s>",
          "type_id": 0
        }
      }
    ],
    "pair": [
      {
        "Sequence": {
          "id": "A",
          "type_id": 0
        }
      },
      {
        "Sequence": {
          "id": "B",
          "type_id": 1
        }
      }
    ],
    "special_tokens": {
      "</s>": {
        "id": "</s>",
        "ids": [
          1
        ],
        "tokens": [
          "</s>"
        ]
      }
    }
  },
  "decoder": {
    "type": "Metaspace",
    "replacement": "▁",
    "add_prefix_space": true
  },
  "model": {
    "type": "Unigram",
    "unk_id": 2,
    "vocab": [
      [
        "<pad>",
        0.0
      ],
      [
        "</s>",
        0.0
      ],
      [
        "<unk>",
        0.0
      ],
      [
        "▁",
        -2.013358088904877
      ],
      [
        "e",
        -3.2790952100111
      ],
      [
        "l",
        -3.368122393538055
      ],
      [
        "i",
        -3.375154625164086
      ],
      [
        ",",
        -3.400658199402095
      ],
      [
        ".",
        -3.541719012644638
      ],
      [
        "a",
        -3.5606089385533863
      ],
      [
        "▁di",
        -3.7355406858219062
      ],
      [
        "o",
        -4.274038097304036
      ],
      [
        "▁la",
        -4.540758215917581
      ],
      [
        "▁in",
        -4.615659180825933
      ],
      [
        "▁che",
        -4.668824343443049
      ],
      [
        "’",
        -4.757865967867744
      ],
      [
        "▁per",
        -4.762196924520254
      ],
      [
        "▁un",
        -4.839822676875773
      ],
      [
        "d",
        -4.871361220124783
      ],
      [
        "s",
        -4.947661535523412
      ],
      [
        "0",
        -4.960323532809802
      ],
      [
        "è",
        -4.978533062290481
      ],
      [
        "t",
        -5.000560834142846
      ],
      [
        "n",
        -5.0072285582036
      ],
      [
        "1",
        -5.09948455007947
      ],
      [
        "▁del",
        -5.130533876191574
      ],
      [
        "▁con",
        -5.231094784195722
      ],
      [
        "r",
        -5.240730067681962
      ],
      [
        "'",
        -5.302962994886034
      ],
      [
        "2",
        -5.307891143289879
      ],
      [
        "▁da",
        -5.344191232269058
      ],
      [
        "▁una",
        -5.443898916016437
      ],
      [
        "▁non",
        -5.4498579121751405
      ],
      [
        "▁si",
        -5.467078241626993
      ],
      [
        "▁della",
        -5.484986408427403
      ],
      [
        "c",
        -5.509873644445239
      ],
      [
        ":",
        -5.720886498858199
      ],
      [
        ")",
        -5.7991578953711915
      ],
      [
        "-",
        -5.807085516958249
      ],
      [
        "(",
        -5.833815728728993
      ],
      [
        "m",
        -5.91346610327588
      ],
      [
        "▁ha",
        -5.954170191349959
      ],
      [
        "▁sono",
        -5.966842177709388
      ],
      [
        "▁dei",
        -6.011060066527747
      ],
      [
        "3",
        -6.0182169401038585
      ],
      [
        "▁ma",
        -6.021907411358502
      ],
      [
        "p",
        -6.042681294255491
      ],
      [
        "5",
        -6.043676673844747
      ],
      [
        "▁nel",
        -6.060678278581058
      ],
      [
        "▁più",
        -6.069355956974782
      ],
      [
        "u",
        -6.122198059992833
      ],
      [
        "▁come",
        -6.131383453386384
      ],
      [
        "▁dell",
        -6.1521948528259465
      ],
      [
        "▁anche",
        -6.179383441111302
      ],
      [
        "4",
        -6.189360860303907
      ],
      [
        "▁su",
        -6.201976320297572
      ],
      [
        "9",
        -6.226094293718521
      ],
      [
        "\"",
        -6.2450649643142775
      ],
      [
        "▁alla",
        -6.25195573233561
      ],
      [
        "▁se",
        -6.304768513812146
      ],
      [
        "▁delle",
        -6.313356185496641
      ],
      [
        "v",
        -6.341714206889328
      ],
      [
        "“",
        -6.347130447660753
      ],
      [
        "g",
        -6.362983378927392
      ],
      [
        "”",
        -6.373344808346779
      ],
      [
        "6",
        -6.383932055034414
      ],
      [
        "8",
        -6.400058334015231
      ],
      [
        "▁gli",
        -6.459272144366672
      ],
      [
        "!",
        -6.462720332477879
      ],
      [
        "7",
        -6.476676313214885
      ],
      [
        "▁all",
        -6.500359421393419
      ],
      [
        "▁questo",
        -6.550201426013839
      ],
      [
        "?",
        -6.564057153350827
      ],
      [
        "b",
        -6.716081587213999
      ],
      [
        "▁tra",
        -6.737365506787903
      ],
      [
        "▁ci",
        -6.737466918753446
      ],
      [
        "▁nella",
        -6.739393664229384
      ],
      [
        "▁dal",
        -6.7643592030101765
      ],
      [
        "h",
        -6.788887107048467
      ],
      [
        "▁essere",
        -6.800084679746881
      ],
      [
        "f",
        -6.808936642984362
      ],
      [
        "/",
        -6.827055811653109
      ],
      [
        "▁cui",
        -6.917575208262628
      ],
      [
        ";",
        -6.991117309225457
      ],
      [
        "▁mi",
        -7.001858867363474
      ],
      [
        "▁alle",
        -7.011411953036756
      ],
      [
        "–",
        -7.03847350744358
      ],
      [
        "▁sul",
        -7.06622163938294
      ],
      [
        "▁tutti",
        -7.101073234065087
      ],
      [
        "▁hanno",
        -7.112234733126037
      ],
      [
        "▁dalla",
        -7.121833712052052
      ],
      [
        "▁solo",
        -7.127207652187211
      ],
      [
        "▁questa",
        -7.152651716613734
      ],
      [
        "▁degli",
        -7.159084639409167
      ],
      [
        "▁stato",
        -7.199424675371926
      ],
      [
        "▁anni",
        -7.214847618884264
      ],
      [
        "▁due",
        -7.227659667834363
      ],
      [
        "▁prima",
        -7.233442974458541
      ],
      [
        "y",
        -7.248176927564883
      ],
      [
        "▁molto",
        -7.249691956255184
      ],
      [
        "▁de",
        -7.263553362482842
      ],
      [
        "▁loro",
        -7.265633733529052
      ],
      [
        "▁parte",
        -7.266632996502876
      ],
      [
        "▁sempre",
        -7.2716391514629635
      ],
      [
        "era",
        -7.274691202754882
      ],
      [
        "▁può",
        -7.312423069768997
      ],
      [
        "k",
        -7.315389643669716
      ],
      [
        "▁dopo",
        -7.331220490311537
      ],
      [
        "z",
        -7.339896989290567
      ],
      [
        "▁tutto",
        -7.343416304864824
      ],
      [
        "▁ogni",
        -7.375288690300051
      ],
      [
        "are",
        -7.377646681273157
      ],
      [
        "▁fa",
        -7.37931180234224
      ],
      [
        "▁suo",
        -7.396834466233656
      ],
      [
        "▁ho",
        -7.401381216930817
      ],
      [
        "▁sulla",
        -7.451408777317104
      ],
      [
        "▁sua",
        -7.451982106443076
      ],
      [
        "▁quando",
        -7.466250831203283
      ],
      [
        "▁senza",
        -7.470128575144143
      ],
      [
        "▁nei",
        -7.485153642224342
      ],
      [
        "anno",
        -7.49958700348189
      ],
      [
        "▁tempo",
        -7.50433108110966
      ],
      [
        "▁sia",
        -7.51019802349991
      ],
      [
        "▁fare",
        -7.541922280401822
      ],
      [
        "▁dall",
        -7.545803731808743
      ],
      [
        "▁perché",
        -7.546034928587233
      ],
      [
        "▁uno",
        -7.553315099741685
      ],
      [
        "%",
        -7.572526588746873
      ],
      [
        "▁chi",
        -7.57343482176373
      ],
      [
        "▁ancora",
        -7.590310215823125
      ],
      [
        "▁poi",
        -7.592240988681851
      ],
      [
        "▁vi",
        -7.593873760544746
      ],
      [
        "▁quello",
        -7.602748992302542
      ],
      [
        "ndo",
        -7.604708808013703
      ],
      [
        "▁modo",
        -7.619760549149756
      ],
      [
        "▁nell",
        -7.620909993314411
      ],
      [
        "ato",
        -7.625675845530569
      ],
      [
        "▁così",
        -7.629510879255234
      ],
      [
        "▁proprio",
        -7.6323386299757185
      ],
      [
        "che",
        -7.657635345932862
      ],
      [
        "▁quanto",
        -7.659115362855536
      ],
      [
        "rsi",
        -7.673317903029423
      ],
      [
        "▁altri",
        -7.674865039784338
      ],
      [
        "▁vita",
        -7.68512750149203
      ],
      [
        "▁fatto",
        -7.690009159665875
      ],
      [
        "ano",
        -7.695870413311557
      ],
      [
        "x",
        -7.696388895487685
      ],
      [
        "▁dove",
        -7.697986064560897
      ],
      [
        "▁lavoro",
        -7.698495449491254
      ],
      [
        "▁sarà",
        -7.704986618581199
      ],
      [
        "▁casa",
        -7.7214286807766435
      ],
      [
        "▁quindi",
        -7.737739277764442
      ],
      [
        "▁nelle",
        -7.740677520820803
      ],
      [
        "▁già",
        -7.754613796686153
      ],
      [
        "mente",
        -7.767386626646504
      ],
      [
        "▁the",
        -7.80569263808783
      ],
      [
        "▁caso",
        -7.817821209044928
      ],
      [
        "▁mondo",
        -7.818930880066276
      ],
      [
        "▁grande",
        -7.823513868691338
      ],
      [
        "»",
        -7.852481950340808
      ],
      [
        "▁cosa",
        -7.864539323327381
      ],
      [
        "▁secondo",
        -7.8685121892615
      ],
      [
        "▁oltre",
        -7.869598958432743
      ],
      [
        "▁tutte",
        -7.883962846495599
      ],
      [
        "▁quella",
        -7.893760823489215
      ],
      [
        "▁oggi",
        -7.901493080265901
      ],
      [
        "«",
        -7.910904754261418
      ],
      [
        "▁primo",
        -7.914107257002696
      ],
      [
        "▁questi",
        -7.919132373185224
      ],
      [
        "▁nostro",
        -7.93077312801322
      ],
      [
        "▁volta",
        -7.943080854145586
      ],
      [
        "▁fino",
        -7.952545655622352
      ],
      [
        "▁stata",
        -7.961325892411468
      ],
      [
        "▁persone",
        -7.963040887245731
      ],
      [
        "w",
        -7.964303193787581
      ],
      [
        "▁possono",
        -7.965149880077094
      ],
      [
        "▁possibile",
        -7.966222437048346
      ],
      [
        "▁quale",
        -7.97289355595086
      ],
      [
        "▁nuovo",
        -7.973183973129757
      ],
      [
        "▁po",
        -7.979201868154538
      ],
      [
        "▁grazie",
        -8.005946228113904
      ],
      [
        "▁via",
        -8.009286624445432
      ],
      [
        "▁viene",
        -8.028365367828997
      ],
      [
        "gli",
        -8.04397803517081
      ],
      [
        "▁abbiamo",
        -8.046515262419755
      ],
      [
        "▁stati",
        -8.0487640369339
      ],
      [
        "▁dalle",
        -8.051766314140675
      ],
      [
        "▁tre",
        -8.053536773159989
      ],
      [
        "▁euro",
        -8.056271145212408
      ],
      [
        "▁me",
        -8.073527873796234
      ],
      [
        "▁noi",
        -8.074895516083053
      ],
      [
        "▁sta",
        -8.077721529916278
      ],
      [
        "▁stesso",
        -8.079180661508369
      ],
      [
        "▁quali",
        -8.08027368808664
      ],
      [
        "▁città",
        -8.08226630963394
      ],
      [
        "▁giorno",
        -8.085542937253784
      ],
      [
        "à",
        -8.098946847005445
      ],
      [
        "un",
        -8.10126915858485
      ],
      [
        "▁fine",
        -8.113236336076087
      ],
      [
        "▁giorni",
        -8.114610004233482
      ],
      [
        "▁mentre",
        -8.115856988304417
      ],
      [
        "▁infatti",
        -8.118553092238379
      ],
      [
        "▁sito",
        -8.119194244984257
      ],
      [
        "▁momento",
        -8.126118855509844
      ],
      [
        "▁sotto",
        -8.13325755063824
      ],
      [
        "azione",
        -8.134589701697733
      ],
      [
        "▁durante",
        -8.139048899333115
      ],
      [
        "▁invece",
        -8.148746664283589
      ],
      [
        "▁qui",
        -8.160197264783001
      ],
      [
        "▁nostra",
        -8.171934822412389
      ],
      [
        "▁bene",
        -8.177800597512789
      ],
      [
        "▁ore",
        -8.180455697241175
      ],
      [
        "▁agli",
        -8.181172655269465
      ],
      [
        "▁ora",
        -8.189470876928281
      ],
      [
        "▁punto",
        -8.19794903932698
      ],
      [
        "▁tuo",
        -8.199212569706546
      ],
      [
        "▁dello",
        -8.200746491646852
      ],
      [
        "▁italia",
        -8.206571136481381
      ],
      [
        "▁avere",
        -8.20713942446155
      ],
      [
        "▁va",
        -8.207478129344112
      ],
      [
        "▁sistema",
        -8.207528903398552
      ],
      [
        "▁dati",
        -8.208209589044772
      ],
      [
        "ing",
        -8.208881278055452
      ],
      [
        "▁qualche",
        -8.21760531236049
      ],
      [
        "▁alcuni",
        -8.223253601220803
      ],
      [
        "▁san",
        -8.225439988540865
      ],
      [
        "▁contro",
        -8.227839784646804
      ],
      [
        "per",
        -8.228028827420712
      ],
      [
        "▁rispetto",
        -8.230121135528833
      ],
      [
        "▁altre",
        -8.230936304172419
      ],
      [
        "ch",
        -8.23562343444842
      ],
      [
        "▁base",
        -8.238531591678404
      ],
      [
        "▁centro",
        -8.240410194727614
      ],
      [
        "▁meno",
        -8.243573071808136
      ],
      [
        "▁servizio",
        -8.246989369601966
      ],
      [
        "rà",
        -8.247840882739062
      ],
      [
        "▁deve",
        -8.259320747231877
      ],
      [
        "▁ben",
        -8.262261305968218
      ],
      [
        "nte",
        -8.262987658085315
      ],
      [
        "▁attraverso",
        -8.263035587482271
      ],
      [
        "▁nuova",
        -8.282069360349034
      ],
      [
        "j",
        -8.289461914760382
      ],
      [
        "▁inoltre",
        -8.297185491722756
      ],
      [
        "▁siamo",
        -8.306461184733944
      ],
      [
        "▁però",
        -8.308518740247052
      ],
      [
        "▁mai",
        -8.30945431260863
      ],
      [
        "▁prodotti",
        -8.311532862929699
      ],
      [
        "ò",
        -8.313648179162323
      ],
      [
        "▁and",
        -8.314737089411127
      ],
      [
        "▁far",
        -8.315488731195757
      ],
      [
        "▁ricerca",
        -8.321589132370129
      ],
      [
        "sti",
        -8.324173450058243
      ],
      [
        "▁circa",
        -8.32664551628018
      ],
      [
        "▁storia",
        -8.328233240012576
      ],
      [
        "interno",
        -8.333060576398914
      ],
      [
        "▁queste",
        -8.333514540654882
      ],
      [
        "▁ciò",
        -8.344906937023929
      ],
      [
        "▁servizi",
        -8.35057199553662
      ],
      [
        "▁sulle",
        -8.362485691438218
      ],
      [
        "▁attività",
        -8.36549379574655
      ],
      [
        "▁soprattutto",
        -8.370988963036538
      ],
      [
        "▁suoi",
        -8.375063454665124
      ],
      [
        "▁negli",
        -8.393560176486494
      ],
      [
        "vano",
        -8.39752254046006
      ],
      [
        "▁comune",
        -8.399820366985935
      ],
      [
        "▁qualità",
        -8.401175534465319
      ],
      [
        "▁co",
        -8.402242819420154
      ],
      [
        "ono",
        -8.403885125441569
      ],
      [
        "▁of",
        -8.406581157039343
      ],
      [
        "▁serie",
        -8.408404603440765
      ],
      [
        "▁corso",
        -8.408546994790342
      ],
      [
        "mento",
        -8.408585340308411
      ],
      [
        "▁roma",
        -8.413821037993552
      ],
      [
        "▁aver",
        -8.4158710932506
      ],
      [
        "▁società",
        -8.418890603945043
      ],
      [
        "▁altro",
        -8.422169612767014
      ],
      [
        "sta",
        -8.426049065738788
      ],
      [
        "▁progetto",
        -8.426801145605442
      ],
      [
        "▁informazioni",
        -8.429763888897117
      ],
      [
        "▁particolare",
        -8.43254830146236
      ],
      [
        "▁presso",
        -8.435068405985142
      ],
      [
        "▁numero",
        -8.4443694026064
      ],
      [
        "▁mio",
        -8.452460456050074
      ],
      [
        "▁verso",
        -8.457774338587802
      ],
      [
        "▁poco",
        -8.458462955713873
      ],
      [
        "▁tu",
        -8.461358208111037
      ],
      [
        "▁fra",
        -8.465883216622734
      ],
      [
        "▁esempio",
        -8.479099077490794
      ],
      [
        "▁dire",
        -8.479563784513454
      ],
      [
        "▁legge",
        -8.480405675977249
      ],
      [
        "▁meglio",
        -8.486867707514604
      ],
      [
        "com",
        -8.488958602715881
      ],
      [
        "▁presidente",
        -8.489570384948772
      ],
      [
        "▁insieme",
        -8.490371336539075
      ],
      [
        "▁possibilità",
        -8.511656665916263
      ],
      [
        "▁film",
        -8.511977849040287
      ],
      [
        "▁spesso",
        -8.513588401812598
      ],
      [
        "▁molti",
        -8.51578496268436
      ],
      [
        "altro",
        -8.515890545942838
      ],
      [
        "▁nostri",
        -8.51612178488227
      ],
      [
        "▁tanto",
        -8.517948191071918
      ],
      [
        "▁pro",
        -8.518779795932101
      ],
      [
        "▁livello",
        -8.522198939271801
      ],
      [
        "con",
        -8.525255332492298
      ],
      [
        "▁online",
        -8.532672471705038
      ],
      [
        "▁posto",
        -8.536006708383649
      ],
      [
        "italia",
        -8.536366658329534
      ],
      [
        "▁tipo",
        -8.536495758856738
      ],
      [
        "▁no",
        -8.540109549070834
      ],
      [
        "▁importante",
        -8.54224970534081
      ],
      [
        "▁potrebbe",
        -8.546544242184455
      ],
      [
        "amo",
        -8.549452674768304
      ],
      [
        "▁lui",
        -8.549704220918866
      ],
      [
        "▁fu",
        -8.553066741615952
      ],
      [
        "▁gruppo",
        -8.557285093375743
      ],
      [
        "chi",
        -8.56120805364995
      ],
      [
        "▁grado",
        -8.563542064109955
      ],
      [
        "▁saranno",
        -8.563994109029679
      ],
      [
        "é",
        -8.568676736223663
      ],
      [
        "▁tutta",
        -8.575825933601802
      ],
      [
        "▁quasi",
        -8.580078381009098
      ],
      [
        "▁prodotto",
        -8.582101781839423
      ],
      [
        "▁mercato",
        -8.585626539219486
      ],
      [
        "▁allo",
        -8.5894306105157
      ],
      [
        "▁volte",
        -8.589993199191158
      ],
      [
        "▁sull",
        -8.592774841495844
      ],
      [
        "▁diversi",
        -8.594072449856807
      ],
      [
        "▁tratta",
        -8.595541323442339
      ],
      [
        "▁aveva",
        -8.595577063117432
      ],
      [
        "&",
        -8.598617413117987
      ],
      [
        "altra",
        -8.60054884340261
      ],
      [
        "▁quelli",
        -8.602434171096709
      ],
      [
        "▁pre",
        -8.605429341272664
      ],
      [
        "▁porta",
        -8.609436744142396
      ],
      [
        "▁mesi",
        -8.61433732736579
      ],
      [
        "▁quel",
        -8.616794022299397
      ],
      [
        "▁nazionale",
        -8.620481591198628
      ],
      [
        "▁bambini",
        -8.622820213509799
      ],
      [
        "tà",
        -8.625674736402663
      ],
      [
        "▁paese",
        -8.626114752255333
      ],
      [
        "▁piano",
        -8.628045540907577
      ],
      [
        "▁quest",
        -8.628558639203007
      ],
      [
        "▁tua",
        -8.639360305612959
      ],
      [
        "▁programma",
        -8.641158766862263
      ],
      [
        "▁web",
        -8.641221526641255
      ],
      [
        "▁prezzo",
        -8.641804826635468
      ],
      [
        "ando",
        -8.642303915613459
      ],
      [
        "▁propria",
        -8.651470708461435
      ],
      [
        "▁quelle",
        -8.652130889472268
      ],
      [
        "▁grandi",
        -8.654450869443933
      ],
      [
        "▁trovare",
        -8.654690754675102
      ],
      [
        "▁poter",
        -8.655115194223852
      ],
      [
        "▁sicurezza",
        -8.656007624802555
      ],
      [
        "sse",
        -8.659015149173868
      ],
      [
        "▁vista",
        -8.65942157313606
      ],
      [
        "▁comunque",
        -8.661353309339855
      ],
      [
        "tori",
        -8.661934056281178
      ],
      [
        "▁tale",
        -8.662360382719314
      ],
      [
        "▁auto",
        -8.664063662067313
      ],
      [
        "zione",
        -8.671644520837472
      ],
      [
        "▁milano",
        -8.675332093973482
      ],
      [
        "▁trova",
        -8.679358632567165
      ],
      [
        "▁mia",
        -8.68194332720149
      ],
      [
        "▁visto",
        -8.682919112032959
      ],
      [
        "▁stessa",
        -8.685131437121518
      ],
      [
        "nti",
        -8.685483709286212
      ],
      [
        "▁forma",
        -8.686669863241677
      ],
      [
        "▁for",
        -8.687134182383117
      ],
      [
        "▁campo",
        -8.687736836410291
      ],
      [
        "▁seconda",
        -8.68874529561464
      ],
      [
        "zza",
        -8.693398262766047
      ],
      [
        "▁detto",
        -8.693545913183184
      ],
      [
        "▁famiglia",
        -8.702060722875165
      ],
      [
        "art",
        -8.703527229693153
      ],
      [
        "▁foto",
        -8.703780726952115
      ],
      [
        "▁pubblico",
        -8.704385872872367
      ],
      [
        "▁gioco",
        -8.709847631559335
      ],
      [
        "▁sarebbe",
        -8.714761158762677
      ],
      [
        "ha",
        -8.72063745286176
      ],
      [
        "▁davvero",
        -8.722821719655183
      ],
      [
        "▁persona",
        -8.726422274659182
      ],
      [
        "▁realtà",
        -8.727454560217783
      ],
      [
        "▁vengono",
        -8.729432912822395
      ],
      [
        "▁alcune",
        -8.730619177494406
      ],
      [
        "▁territorio",
        -8.73076887694459
      ],
      [
        "▁diverse",
        -8.732325484213883
      ],
      [
        "▁milioni",
        -8.734674531315706
      ],
      [
        "▁settore",
        -8.736674434683545
      ],
      [
        "▁subito",
        -8.738331078394399
      ],
      [
        "iamo",
        -8.74134624649157
      ],
      [
        "non",
        -8.744682674118883
      ],
      [
        "▁periodo",
        -8.746034697516212
      ],
      [
        "▁presente",
        -8.747701787208044
      ],
      [
        "▁cura",
        -8.749424341147696
      ],
      [
        "▁trattamento",
        -8.750608759996023
      ],
      [
        "ultimo",
        -8.7528908244968
      ],
      [
        "▁mese",
        -8.756551522739032
      ],
      [
        "▁video",
        -8.757022151844946
      ],
      [
        "▁peso",
        -8.757534333301617
      ],
      [
        "▁nuovi",
        -8.757576579621503
      ],
      [
        "▁nome",
        -8.762584694694201
      ],
      [
        "▁vedere",
        -8.765413006658326
      ],
      [
        "▁studio",
        -8.768857095588515
      ],
      [
        "▁minuti",
        -8.77030037370977
      ],
      [
        "▁lungo",
        -8.770633599544615
      ],
      [
        "€",
        -8.770752525676373
      ],
      [
        "▁qualsiasi",
        -8.771107214168095
      ],
      [
        "▁sembra",
        -8.77186470468477
      ],
      [
        "▁punti",
        -8.774238018160366
      ],
      [
        "▁personale",
        -8.7745893771118
      ],
      [
        "▁problema",
        -8.780536300177971
      ],
      [
        "▁cose",
        -8.780611263282474
      ],
      [
        "▁zona",
        -8.783728377962868
      ],
      [
        "▁nuove",
        -8.78613219654851
      ],
      [
        "▁media",
        -8.79151002339363
      ],
      [
        "bile",
        -8.7983733546722
      ],
      [
        "‘",
        -8.801131910833229
      ],
      [
        "▁migliori",
        -8.803053523463266
      ],
      [
        "ero",
        -8.81076572481784
      ],
      [
        "▁seguito",
        -8.811402453378838
      ],
      [
        "▁vero",
        -8.812043925448515
      ],
      [
        "▁forse",
        -8.81232999133129
      ],
      [
        "▁fuori",
        -8.81308247330176
      ],
      [
        "▁semplice",
        -8.818354558870485
      ],
      [
        "▁consiglio",
        -8.819170015386455
      ],
      [
        "▁dato",
        -8.822160699347098
      ],
      [
        "▁sviluppo",
        -8.825126024515463
      ],
      [
        "▁donna",
        -8.825189330734936
      ],
      [
        "▁struttura",
        -8.829618530500639
      ],
      [
        "▁scelta",
        -8.829953912249776
      ],
      [
        "▁dare",
        -8.831676972957792
      ],
      [
        "uso",
        -8.836059055587837
      ],
      [
        "▁donne",
        -8.837874386395027
      ],
      [
        "▁terra",
        -8.839199481578813
      ],
      [
        "+",
        -8.841782073544127
      ],
      [
        "ante",
        -8.842337171691778
      ],
      [
        "man",
        -8.846323150450015
      ],
      [
        "ter",
        -8.848090444806234
      ],
      [
        "­",
        -8.851496947312807
      ],
      [
        "▁causa",
        -8.853376217627615
      ],
      [
        "▁scuola",
        -8.858487605482901
      ],
      [
        "zioni",
        -8.864985899068703
      ],
      [
        "▁italiano",
        -8.866868848036148
      ],
      [
        "▁necessario",
        -8.86709406394292
      ],
      [
        "arte",
        -8.869813972773237
      ],
      [
        "▁bar",
        -8.872817063474344
      ],
      [
        "▁problemi",
        -8.873351765887445
      ],
      [
        "▁corpo",
        -8.876677425559343
      ],
      [
        "▁bisogno",
        -8.881711809786847
      ],
      [
        "rti",
        -8.885830563116263
      ],
      [
        "▁oppure",
        -8.888411398940045
      ],
      [
        "▁col",
        -8.891592447658873
      ],
      [
        "▁presenti",
        -8.897647128577093
      ],
      [
        "▁troppo",
        -8.899990895014282
      ],
      [
        "▁state",
        -8.900472022274686
      ],
      [
        "▁puoi",
        -8.904926610960182
      ],
      [
        "°",
        -8.905320571650458
      ],
      [
        "▁libro",
        -8.906336661132139
      ],
      [
        "▁spazio",
        -8.909538736084267
      ],
      [
        "▁almeno",
        -8.912201679794808
      ],
      [
        "▁tramite",
        -8.9130189704144
      ],
      [
        "▁condizioni",
        -8.91652870004534
      ],
      [
        "▁generale",
        -8.917134954220655
      ],
      [
        "▁presenza",
        -8.91726649671594
      ],
      [
        "bili",
        -8.919797555472647
      ],
      [
        "tte",
        -8.92051381589715
      ],
      [
        "▁luogo",
        -8.922868376347882
      ],
      [
        "▁data",
        -8.92331657285852
      ],
      [
        "▁senso",
        -8.928227348976748
      ],
      [
        "▁dagli",
        -8.929533630244485
      ],
      [
        "▁governo",
        -8.929742679363173
      ],
      [
        "▁regione",
        -8.930209609688902
      ],
      [
        "menti",
        -8.930915939418076
      ],
      [
        "▁certo",
        -8.93205155016343
      ],
      [
        "azioni",
        -8.933044452425056
      ],
      [
        "▁erano",
        -8.934663999637033
      ],
      [
        "inizio",
        -8.934891960125757
      ],
      [
        "▁giornata",
        -8.93578655804489
      ],
      [
        "▁qualcosa",
        -8.941946078774553
      ],
      [
        "ente",
        -8.94299897551795
      ],
      [
        "anti",
        -8.943553258228302
      ],
      [
        "ultima",
        -8.946804214025635
      ],
      [
        "▁casi",
        -8.949355625496308
      ],
      [
        "▁be",
        -8.95043300438084
      ],
      [
        "ora",
        -8.95204640477169
      ],
      [
        "▁valore",
        -8.952900262149148
      ],
      [
        "▁guida",
        -8.953237065102126
      ],
      [
        "▁italiana",
        -8.954399836256698
      ],
      [
        "▁successo",
        -8.957187779269468
      ],
      [
        "▁gestione",
        -8.960744141662286
      ],
      [
        "▁siano",
        -8.961603971605916
      ],
      [
        "▁pelle",
        -8.963335146574545
      ],
      [
        "▁diritto",
        -8.965088999046603
      ],
      [
        "▁giovani",
        -8.968467106347427
      ],
      [
        "▁percorso",
        -8.97061891749186
      ],
      [
        "azienda",
        -8.972320117159452
      ],
      [
        "▁settimana",
        -8.972946419220767
      ],
      [
        "▁rete",
        -8.973005543807927
      ],
      [
        "▁strada",
        -8.974401950084111
      ],
      [
        "▁musica",
        -8.97603581952202
      ],
      [
        "▁buona",
        -8.978000662821824
      ],
      [
        "▁mano",
        -8.979626187009679
      ],
      [
        "▁buon",
        -8.980613142249451
      ],
      [
        "uomo",
        -8.982597171725786
      ],
      [
        "▁termine",
        -8.983317642561346
      ],
      [
        "▁hotel",
        -8.985791460847102
      ],
      [
        "▁allora",
        -8.988440528095477
      ],
      [
        "▁produzione",
        -8.990442052981393
      ],
      [
        "▁politica",
        -8.992429002447755
      ],
      [
        "▁risultati",
        -8.9933858060595
      ],
      [
        "▁situazione",
        -8.994503231587052
      ],
      [
        "▁pochi",
        -8.9981535035924
      ],
      [
        "tta",
        -8.999855557193568
      ],
      [
        "▁migliore",
        -9.000073276601906
      ],
      [
        "aria",
        -9.001036382195913
      ],
      [
        "▁fi",
        -9.002406241119058
      ],
      [
        "▁posizione",
        -9.005128229209646
      ],
      [
        "▁parole",
        -9.00864657767265
      ],
      [
        "acqua",
        -9.009719186274186
      ],
      [
        "▁viaggio",
        -9.01046585531989
      ],
      [
        "▁conto",
        -9.013114268975253
      ],
      [
        "▁luce",
        -9.0145378965572
      ],
      [
        "▁quattro",
        -9.015002140102794
      ],
      [
        "▁avuto",
        -9.01626598453055
      ],
      [
        "▁forza",
        -9.016382459242127
      ],
      [
        "▁stagione",
        -9.019580677636004
      ],
      [
        "erà",
        -9.01982383451881
      ],
      [
        "▁ecco",
        -9.021149419109538
      ],
      [
        "▁disposizione",
        -9.02128970671061
      ],
      [
        "▁km",
        -9.025139329748017
      ],
      [
        "▁primi",
        -9.025750785561067
      ],
      [
        "▁offre",
        -9.028391255072748
      ],
      [
        "▁sociale",
        -9.029040567428185
      ],
      [
        "▁formazione",
        -9.02904093924326
      ],
      [
        "ver",
        -9.032108024343218
      ],
      [
        "▁tempi",
        -9.036051701737623
      ],
      [
        "▁post",
        -9.039383896658824
      ],
      [
        "▁propri",
        -9.039649206388985
      ],
      [
        "▁ultimi",
        -9.0397909195134
      ],
      [
        "▁riguarda",
        -9.04057357105538
      ],
      [
        "▁vuole",
        -9.043381955967993
      ],
      [
        "▁camera",
        -9.043463516953738
      ],
      [
        "▁voi",
        -9.04648273017119
      ],
      [
        "▁maggio",
        -9.04925599307873
      ],
      [
        "▁clienti",
        -9.049793860272064
      ],
      [
        "▁forte",
        -9.050049977504663
      ],
      [
        "▁linea",
        -9.050272563967969
      ],
      [
        "son",
        -9.050697377583468
      ],
      [
        "▁andare",
        -9.051828208338865
      ],
      [
        "ex",
        -9.052264286996662
      ],
      [
        "▁gran",
        -9.053564058064962
      ],
      [
        "▁titolo",
        -9.05781391820485
      ],
      [
        "▁tanti",
        -9.060386665333564
      ],
      [
        "associazione",
        -9.061267353113136
      ],
      [
        "▁letto",
        -9.061703918048751
      ],
      [
        "▁vendita",
        -9.063916149439311
      ],
      [
        "▁inter",
        -9.064855711075012
      ],
      [
        "▁partire",
        -9.06497396629508
      ],
      [
        "▁squadra",
        -9.06674360623551
      ],
      [
        "tore",
        -9.06811613516869
      ],
      [
        "▁massimo",
        -9.069251243569475
      ],
      [
        "▁controllo",
        -9.069261389660062
      ],
      [
        "ste",
        -9.070882633303103
      ],
      [
        "▁futuro",
        -9.072657319916903
      ],
      [
        "▁perchè",
        -9.074855999659388
      ],
      [
        "▁mezzo",
        -9.074982033369707
      ],
      [
        "▁aziende",
        -9.084349387743655
      ],
      [
        "▁rapporto",
        -9.085299023625604
      ],
      [
        "▁vari",
        -9.089023157086924
      ],
      [
        "▁ormai",
        -9.090317258092496
      ],
      [
        "rmi",
        -9.090684156823508
      ],
      [
        "▁bo",
        -9.091815437037068
      ],
      [
        "ità",
        -9.092068188931384
      ],
      [
        "▁permette",
        -9.0937526109452
      ],
      [
        "tra",
        -9.095918260512432
      ],
      [
        "▁ottenere",
        -9.09597404745851
      ],
      [
        "▁sopra",
        -9.097313197674945
      ],
      [
        "▁creare",
        -9.09861449126544
      ],
      [
        "▁molte",
        -9.101849468926163
      ],
      [
        "▁com",
        -9.103095478556387
      ],
      [
        "est",
        -9.107659585892687
      ],
      [
        "▁devono",
        -9.107939439191684
      ],
      [
        "▁salute",
        -9.110993342304218
      ],
      [
        "▁fanno",
        -9.111710857367228
      ],
      [
        "▁finale",
        -9.11222908773144
      ],
      [
        "▁mare",
        -9.113046264853743
      ],
      [
        "attività",
        -9.113277453832731
      ],
      [
        "▁cuore",
        -9.114383833162355
      ],
      [
        "▁giugno",
        -9.114844034291355
      ],
      [
        "▁paesi",
        -9.11524790927609
      ],
      [
        "ranno",
        -9.115633647675075
      ],
      [
        "▁parti",
        -9.117504636174452
      ],
      [
        "▁rischio",
        -9.11930071337054
      ],
      [
        "▁internazionale",
        -9.11955163407273
      ],
      [
        "▁stile",
        -9.119670281176262
      ],
      [
        "▁possa",
        -9.119932787818971
      ],
      [
        "▁direttamente",
        -9.12029552965854
      ],
      [
        "▁fin",
        -9.12054958223874
      ],
      [
        "▁sede",
        -9.120880651565102
      ],
      [
        "▁nulla",
        -9.122979042007517
      ],
      [
        "enti",
        -9.12306999733022
      ],
      [
        "▁natura",
        -9.12359965220644
      ],
      [
        "▁dunque",
        -9.125275318409592
      ],
      [
        "▁fronte",
        -9.125867090121211
      ],
      [
        "▁importanti",
        -9.127234716053035
      ],
      [
        "▁tuttavia",
        -9.127414640487762
      ],
      [
        "sco",
        -9.127745999543182
      ],
      [
        "▁maggior",
        -9.130837468338186
      ],
      [
        "▁pagina",
        -9.136881684654425
      ],
      [
        "▁marzo",
        -9.137568922902236
      ],
      [
        "▁internet",
        -9.13884745615387
      ],
      [
        "▁prezzi",
        -9.139027192714371
      ],
      [
        "sce",
        -9.140128543991873
      ],
      [
        "▁capacità",
        -9.141108060070067
      ],
      [
        "▁settembre",
        -9.141824300705382
      ],
      [
        "ck",
        -9.143117637651171
      ],
      [
        "▁maggiore",
        -9.14328571421925
      ],
      [
        "▁uomo",
        -9.1497912414858
      ],
      [
        "▁fosse",
        -9.151027158370804
      ],
      [
        "▁modello",
        -9.154249890775052
      ],
      [
        "▁richiesta",
        -9.154738138304786
      ],
      [
        "▁ruolo",
        -9.154800555153422
      ],
      [
        "▁disponibili",
        -9.15540958632163
      ],
      [
        "▁uomini",
        -9.155645513832772
      ],
      [
        "▁locali",
        -9.155691044293144
      ],
      [
        "▁file",
        -9.156390783872018
      ],
      [
        "ico",
        -9.156464969279847
      ],
      [
        "app",
        -9.159429715735545
      ],
      [
        "▁utenti",
        -9.159725331144037
      ],
      [
        "▁cittadini",
        -9.162722186321284
      ],
      [
        "▁piccolo",
        -9.166395256825815
      ],
      [
        "▁fase",
        -9.166549699453313
      ],
      [
        "▁processo",
        -9.16749208535429
      ],
      [
        "▁riferimento",
        -9.168545046659409
      ],
      [
        "▁prova",
        -9.16888778034258
      ],
      [
        "▁disponibile",
        -9.169352663226206
      ],
      [
        "▁dicembre",
        -9.16940576823898
      ],
      [
        "▁genere",
        -9.170607002116824
      ],
      [
        "▁provincia",
        -9.172372215732114
      ],
      [
        "▁facile",
        -9.173061758382335
      ],
      [
        "▁vostro",
        -9.17591405439271
      ],
      [
        "▁piazza",
        -9.177479331524502
      ],
      [
        "▁appena",
        -9.177795755291676
      ],
      [
        "rvi",
        -9.17837318686994
      ],
      [
        "▁alta",
        -9.178798095797896
      ],
      [
        "▁entro",
        -9.180612583466804
      ],
      [
        "amente",
        -9.181517548305983
      ],
      [
        "▁cultura",
        -9.182189021579529
      ],
      [
        "▁scorso",
        -9.182239880193258
      ],
      [
        "▁dovrebbe",
        -9.183267626004154
      ],
      [
        "▁cucina",
        -9.184491951974646
      ],
      [
        "_",
        -9.184527261488114
      ],
      [
        "▁risultato",
        -9.18458801601256
      ],
      [
        "▁tema",
        -9.18689666605635
      ],
      [
        "▁ex",
        -9.188524327731717
      ],
      [
        "▁italiani",
        -9.191563035657088
      ],
      [
        "▁nello",
        -9.19528331245238
      ],
      [
        "▁studi",
        -9.19565819316384
      ],
      [
        "▁amici",
        -9.196997009335908
      ],
      [
        "▁mostra",
        -9.203110512120862
      ],
      [
        "▁anti",
        -9.20320297475845
      ],
      [
        "▁effetti",
        -9.20341436432243
      ],
      [
        "▁gennaio",
        -9.20597286372046
      ],
      [
        "q",
        -9.208674731203317
      ],
      [
        "▁sicuramente",
        -9.211270358230054
      ],
      [
        "▁dice",
        -9.212457009307784
      ],
      [
        "ry",
        -9.21276874096177
      ],
      [
        "▁nonostante",
        -9.213555113472951
      ],
      [
        "▁nostre",
        -9.213784628138718
      ],
      [
        "▁lavori",
        -9.214137223622108
      ],
      [
        "▁ragazzi",
        -9.21702300077335
      ],
      [
        "ndosi",
        -9.21722034271628
      ],
      [
        "▁capire",
        -9.222649532281554
      ],
      [
        "idea",
        -9.222738365049574
      ],
      [
        "▁pe",
        -9.223763318143046
      ],
      [
        "▁domanda",
        -9.22667202807744
      ],
      [
        "▁carta",
        -9.22809117249817
      ],
      [
        "su",
        -9.228847300053872
      ],
      [
        "▁totale",
        -9.229544835066164
      ],
      [
        "▁collaborazione",
        -9.231253513945653
      ],
      [
        "▁super",
        -9.231835126767631
      ],
      [
        "▁continua",
        -9.23229919093865
      ],
      [
        "▁crescita",
        -9.233555741998613
      ],
      [
        "▁passato",
        -9.23834545525918
      ],
      [
        "▁colore",
        -9.23847112600328
      ],
      [
        "▁chiesa",
        -9.240021788333028
      ],
      [
        "▁luglio",
        -9.2404386668125
      ],
      [
        "▁comuni",
        -9.241062326187436
      ],
      [
        "▁possiamo",
        -9.245517975644024
      ],
      [
        "ava",
        -9.245804977245346
      ],
      [
        "*",
        -9.247377900224585
      ],
      [
        "▁soluzione",
        -9.249011613401478
      ],
      [
        "▁bella",
        -9.251422243465225
      ],
      [
        "▁difficile",
        -9.25258874361837
      ],
      [
        "▁pari",
        -9.252837247851591
      ],
      [
        "▁utilizzare",
        -9.258023877528544
      ],
      [
        "▁sport",
        -9.261632418807253
      ],
      [
        "▁versione",
        -9.262421666743004
      ],
      [
        "università",
        -9.26262694241493
      ],
      [
        "▁perdere",
        -9.262696986646894
      ],
      [
        "▁fondo",
        -9.263663649090004
      ],
      [
        "▁ottobre",
        -9.265231219434028
      ],
      [
        "▁scegliere",
        -9.266036886775169
      ],
      [
        "tti",
        -9.266965677865551
      ],
      [
        "▁notte",
        -9.270079010526366
      ],
      [
        "▁capo",
        -9.270704932264598
      ],
      [
        "oro",
        -9.273234789226263
      ],
      [
        "▁mettere",
        -9.277731124348444
      ],
      [
        "▁gara",
        -9.278354833102451
      ],
      [
        "▁novembre",
        -9.282172899194864
      ],
      [
        "▁eventi",
        -9.283768508945386
      ],
      [
        "hotel",
        -9.28550484411405
      ],
      [
        "▁immagini",
        -9.285936688408638
      ],
      [
        "area",
        -9.287106412377955
      ],
      [
        "▁domenica",
        -9.288022879813298
      ],
      [
        "▁design",
        -9.288140956582314
      ],
      [
        "pro",
        -9.29039492145313
      ],
      [
        "▁aprile",
        -9.292787019321905
      ],
      [
        "▁regionale",
        -9.295468601254065
      ],
      [
        "▁stampa",
        -9.29566308767047
      ],
      [
        "▁misura",
        -9.29624631780828
      ],
      [
        "▁alto",
        -9.296982845527795
      ],
      [
        "▁costo",
        -9.299984372375986
      ],
      [
        "eri",
        -9.30137420761216
      ],
      [
        "▁vicino",
        -9.30333106349268
      ],
      [
        "▁car",
        -9.30489798869717
      ],
      [
        "▁infine",
        -9.30521097870857
      ],
      [
        "▁stessi",
        -9.306765478990586
      ],
      [
        "▁pur",
        -9.30785814756875
      ],
      [
        "▁app",
        -9.3095315816854
      ],
      [
        "▁nord",
        -9.311498252076298
      ],
      [
        "▁prendere",
        -9.312032118768585
      ],
      [
        "▁maniera",
        -9.3132552976533
      ],
      [
        "▁breve",
        -9.319714696043471
      ],
      [
        "▁bagno",
        -9.323301344628154
      ],
      [
        "▁visita",
        -9.328765399494484
      ],
      [
        "▁scarpe",
        -9.328771668055037
      ],
      [
        "esperienza",
        -9.331287947146402
      ],
      [
        "▁modalità",
        -9.331407877219725
      ],
      [
        "▁locale",
        -9.331481750822617
      ],
      [
        "▁scritto",
        -9.332184291114858
      ],
      [
        "ssimo",
        -9.333611008555255
      ],
      [
        "▁comunicazione",
        -9.336001141926427
      ],
      [
        "▁comunità",
        -9.336196189586042
      ],
      [
        "ff",
        -9.336392844479075
      ],
      [
        "▁nota",
        -9.33696185846063
      ],
      [
        "iva",
        -9.337261522034913
      ],
      [
        "▁attenzione",
        -9.339118396008862
      ],
      [
        "▁imprese",
        -9.339325100059044
      ],
      [
        "▁piccoli",
        -9.341655459801425
      ],
      [
        "▁principali",
        -9.342849699851245
      ],
      [
        "▁naturale",
        -9.344101651327488
      ],
      [
        "▁cerca",
        -9.345202990193783
      ],
      [
        "mila",
        -9.348913050758236
      ],
      [
        "▁bisogna",
        -9.34948541293408
      ],
      [
        "▁avrebbe",
        -9.35074512443502
      ],
      [
        "▁nero",
        -9.350993186460329
      ],
      [
        "▁parla",
        -9.353774476086576
      ],
      [
        "▁sapere",
        -9.354598822947723
      ],
      [
        "▁colori",
        -9.357618655397152
      ],
      [
        "elli",
        -9.358122138498306
      ],
      [
        "▁abbia",
        -9.3581382081849
      ],
      [
        "▁strumenti",
        -9.358717978147116
      ],
      [
        "esso",
        -9.35976373058393
      ],
      [
        "▁risposta",
        -9.362677370440966
      ],
      [
        "▁pubblica",
        -9.364899213245597
      ],
      [
        "▁cinque",
        -9.365186092094408
      ],
      [
        "ambiente",
        -9.366005146504396
      ],
      [
        "▁sera",
        -9.366631264456071
      ],
      [
        "▁esperienza",
        -9.36952668383466
      ],
      [
        "▁basta",
        -9.370523516627038
      ],
      [
        "▁ecc",
        -9.370697346271989
      ],
      [
        "▁offerte",
        -9.371788169613836
      ],
      [
        "▁caratteristiche",
        -9.37386140973076
      ],
      [
        "▁potrà",
        -9.373993333353535
      ],
      [
        "▁acqua",
        -9.375033654341168
      ],
      [
        "ment",
        -9.37562303339612
      ],
      [
        "▁codice",
        -9.379154827563896
      ],
      [
        "schi",
        -9.381979672790054
      ],
      [
        "▁siti",
        -9.382715368505457
      ],
      [
        "▁prossimo",
        -9.38369126444587
      ],
      [
        "▁camere",
        -9.383738659241436
      ],
      [
        "▁facendo",
        -9.384764730609898
      ],
      [
        "▁bianco",
        -9.385664478998535
      ],
      [
        "ordine",
        -9.388441103979858
      ],
      [
        "▁male",
        -9.388530959855622
      ],
      [
        "articolo",
        -9.389705842836472
      ],
      [
        "auto",
        -9.390622219215135
      ],
      [
        "▁napoli",
        -9.391338408549275
      ],
      [
        "▁prime",
        -9.392420607180451
      ],
      [
        "▁pratica",
        -9.393925928861597
      ],
      [
        "▁necessità",
        -9.393962729335923
      ],
      [
        "▁stanno",
        -9.39558322243372
      ],
      [
        "line",
        -9.397126650282203
      ],
      [
        "▁deciso",
        -9.397241137918012
      ],
      [
        "▁avanti",
        -9.397836969875204
      ],
      [
        "amore",
        -9.398482588090127
      ],
      [
        "▁perdita",
        -9.398856233538138
      ],
      [
        "▁febbraio",
        -9.39940844483992
      ],
      [
        "▁verrà",
        -9.400254505586547
      ],
      [
        "▁mar",
        -9.400506706523702
      ],
      [
        "▁sole",
        -9.40063487658998
      ],
      [
        "▁partita",
        -9.401024267410708
      ],
      [
        "▁cliente",
        -9.402340725972998
      ],
      [
        "sca",
        -9.403477804007402
      ],
      [
        "ty",
        -9.406070832142175
      ],
      [
        "▁termini",
        -9.406982301111109
      ],
      [
        "▁rende",
        -9.409696564395476
      ],
      [
        "▁progetti",
        -9.409904283315448
      ],
      [
        "▁tri",
        -9.410106051756824
      ],
      [
        "▁arriva",
        -9.410133445180971
      ],
      [
        "▁significa",
        -9.410364514040165
      ],
      [
        "▁personali",
        -9.411073315501367
      ],
      [
        "opera",
        -9.412017618457964
      ],
      [
        "▁difficoltà",
        -9.413251368170414
      ],
      [
        "▁costi",
        -9.4136454150814
      ],
      [
        "tto",
        -9.413652498045357
      ],
      [
        "▁testa",
        -9.413796135868608
      ],
      [
        "▁metri",
        -9.41518813835936
      ],
      [
        "▁vivere",
        -9.415813888351774
      ],
      [
        "▁morte",
        -9.41605482708531
      ],
      [
        "tura",
        -9.416319753415742
      ],
      [
        "▁ovviamente",
        -9.416917366415063
      ],
      [
        "▁evitare",
        -9.417626208968594
      ],
      [
        "▁social",
        -9.417758020992824
      ],
      [
        "▁vera",
        -9.41806320808689
      ],
      [
        "▁raggiungere",
        -9.418341090896398
      ],
      [
        "▁padre",
        -9.42059598421594
      ],
      [
        "▁test",
        -9.420948419115946
      ],
      [
        "▁completamente",
        -9.422773797939566
      ],
      [
        "▁sindaco",
        -9.423459325687997
      ],
      [
        "▁guerra",
        -9.424552333670054
      ],
      [
        "▁diritti",
        -9.4250494970127
      ],
      [
        "ster",
        -9.425595148580548
      ],
      [
        "ton",
        -9.426142927535258
      ],
      [
        "▁portare",
        -9.426678179139031
      ],
      [
        "▁ovvero",
        -9.426912347798908
      ],
      [
        "▁occhi",
        -9.428245980215442
      ],
      [
        "▁superiore",
        -9.429649694089642
      ],
      [
        "▁elementi",
        -9.430369368952604
      ],
      [
        "▁figli",
        -9.43100411681348
      ],
      [
        "▁nessuno",
        -9.431228542544872
      ],
      [
        "▁piedi",
        -9.43238883856001
      ],
      [
        "▁presenta",
        -9.435433278249988
      ],
      [
        "▁opere",
        -9.437037713288976
      ],
      [
        "▁motivo",
        -9.437250618080752
      ],
      [
        "▁can",
        -9.437260827789274
      ],
      [
        "▁parlare",
        -9.437494377502617
      ],
      [
        "▁passo",
        -9.438125825448957
      ],
      [
        "▁mani",
        -9.438667568320293
      ],
      [
        "▁basso",
        -9.43872144439003
      ],
      [
        "vol",
        -9.439138266912712
      ],
      [
        "▁vostra",
        -9.439559371021751
      ],
      [
        "▁pagamento",
        -9.442155983506543
      ],
      [
        "▁maria",
        -9.442488440254625
      ],
      [
        "▁storico",
        -9.443412222890064
      ],
      [
        "tica",
        -9.444075970417927
      ],
      [
        "▁crisi",
        -9.444381485167662
      ],
      [
        "▁relazione",
        -9.445831468453727
      ],
      [
        "▁unico",
        -9.446009068081649
      ],
      [
        "▁sala",
        -9.447005320665578
      ],
      [
        "etto",
        -9.447112776677097
      ],
      [
        "fer",
        -9.447441561696582
      ],
      [
        "endo",
        -9.447673134591875
      ],
      [
        "ì",
        -9.448912028332686
      ],
      [
        "▁giovane",
        -9.45124872064332
      ],
      [
        "▁sabato",
        -9.45175546346013
      ],
      [
        "ista",
        -9.45184566997022
      ],
      [
        "▁proprietà",
        -9.452837646120884
      ],
      [
        "▁varie",
        -9.452878361184949
      ],
      [
        "▁ieri",
        -9.45366332036381
      ],
      [
        "▁risorse",
        -9.454129810043584
      ],
      [
        "▁adesso",
        -9.454292690060862
      ],
      [
        "▁calcio",
        -9.454545810143111
      ],
      [
        "▁software",
        -9.454648923760844
      ],
      [
        "▁usa",
        -9.45553447460934
      ],
      [
        "smo",
        -9.458831312368629
      ],
      [
        "▁libri",
        -9.458841696916918
      ],
      [
        "▁esigenze",
        -9.459156405691845
      ],
      [
        "▁tante",
        -9.459693403430595
      ],
      [
        "▁niente",
        -9.459710010292245
      ],
      [
        "▁qualcuno",
        -9.461708424813322
      ],
      [
        "▁vede",
        -9.463085271764712
      ],
      [
        "▁né",
        -9.46341824528136
      ],
      [
        "▁principale",
        -9.464846916164008
      ],
      [
        "▁sistemi",
        -9.469962406068968
      ],
      [
        "▁movimento",
        -9.470055200996368
      ],
      [
        "▁funzione",
        -9.470986958637916
      ],
      [
        "▁ospiti",
        -9.471226615503312
      ],
      [
        "▁contenuti",
        -9.471897700729745
      ],
      [
        "▁giro",
        -9.47227910522664
      ],
      [
        "ambito",
        -9.472744404668406
      ],
      [
        "▁utile",
        -9.473199445934997
      ],
      [
        "▁europea",
        -9.475300747464498
      ],
      [
        "tro",
        -9.479412753025509
      ],
      [
        "▁conoscere",
        -9.480057357333516
      ],
      [
        "▁davanti",
        -9.484952526987271
      ],
      [
        "▁francesco",
        -9.486205915240031
      ],
      [
        "que",
        -9.486608015898462
      ],
      [
        "▁bambino",
        -9.486657728283
      ],
      [
        "▁tali",
        -9.486832808803518
      ],
      [
        "▁new",
        -9.487047548802307
      ],
      [
        "gen",
        -9.487065408455493
      ],
      [
        "▁case",
        -9.487451650351291
      ],
      [
        "▁tecnico",
        -9.487659030434346
      ],
      [
        "▁voce",
        -9.488023558272513
      ],
      [
        "▁centrale",
        -9.488242673469149
      ],
      [
        "sci",
        -9.489385765998726
      ],
      [
        "▁questione",
        -9.48959895268687
      ],
      [
        "▁cioè",
        -9.489896370989804
      ],
      [
        "ore",
        -9.491562667992914
      ],
      [
        "]",
        -9.49248324772886
      ],
      [
        "▁verde",
        -9.49327457369425
      ],
      [
        "▁testo",
        -9.493300207151382
      ],
      [
        "▁materiale",
        -9.494159557394443
      ],
      [
        "utilizzo",
        -9.49428613396242
      ],
      [
        "▁posti",
        -9.49447483818227
      ],
      [
        "▁terzo",
        -9.494627315698558
      ],
      [
        "▁giusto",
        -9.49777627628722
      ],
      [
        "▁proprie",
        -9.498288915146274
      ],
      [
        "▁aiuta",
        -9.498813253407896
      ],
      [
        "[",
        -9.500188205944712
      ],
      [
        "▁prevede",
        -9.50051213563993
      ],
      [
        "▁articolo",
        -9.500634199895226
      ],
      [
        "▁studenti",
        -9.502085458106214
      ],
      [
        "▁bel",
        -9.50244107511172
      ],
      [
        "▁famiglie",
        -9.506644683256594
      ],
      [
        "▁credito",
        -9.50673523265892
      ],
      [
        "arci",
        -9.506832262423725
      ],
      [
        "▁rappresenta",
        -9.510101379821842
      ],
      [
        "▁contratto",
        -9.510234597793406
      ],
      [
        "▁arrivare",
        -9.51186194074016
      ],
      [
        "▁spa",
        -9.512106889451353
      ],
      [
        "▁giochi",
        -9.513606542525991
      ],
      [
        "▁miglior",
        -9.514219861194002
      ],
      [
        "▁dolore",
        -9.5153532197263
      ],
      [
        "obiettivo",
        -9.516699463731028
      ],
      [
        "▁mondiale",
        -9.516846367892695
      ],
      [
        "▁classe",
        -9.517762823854971
      ],
      [
        "▁materiali",
        -9.51796240886979
      ],
      [
        "▁agosto",
        -9.51875988624991
      ],
      [
        "▁fondamentale",
        -9.51886654987896
      ],
      [
        "▁monte",
        -9.519237689889756
      ],
      [
        "▁resto",
        -9.520920646771316
      ],
      [
        "▁economico",
        -9.523027716807274
      ],
      [
        "▁fatti",
        -9.524005107848076
      ],
      [
        "▁vuoi",
        -9.52470365847692
      ],
      [
        "▁diventa",
        -9.524882411511646
      ],
      [
        "▁protezione",
        -9.524942343048494
      ],
      [
        "▁opera",
        -9.526197942186464
      ],
      [
        "▁interventi",
        -9.527054424660678
      ],
      [
        "ssa",
        -9.527555473812216
      ],
      [
        "qui",
        -9.527798972318616
      ],
      [
        "▁distanza",
        -9.527851017839057
      ],
      [
        "▁piuttosto",
        -9.530795778149514
      ],
      [
        "▁piccola",
        -9.530835725188965
      ],
      [
        "▁leggere",
        -9.532259921397635
      ],
      [
        "▁tuoi",
        -9.532438028145066
      ],
      [
        "▁direttore",
        -9.534455815029403
      ],
      [
        "▁consente",
        -9.535691358798422
      ],
      [
        "▁teatro",
        -9.536170508561971
      ],
      [
        "▁spiega",
        -9.536374690136856
      ],
      [
        "▁fo",
        -9.537952893469152
      ],
      [
        "▁modelli",
        -9.537991307100429
      ],
      [
        "▁ufficiale",
        -9.538830084330224
      ],
      [
        "zio",
        -9.538860996669996
      ],
      [
        "remo",
        -9.539491655119503
      ],
      [
        "▁posso",
        -9.53973953270298
      ],
      [
        "▁piace",
        -9.543772419920437
      ],
      [
        "▁soltanto",
        -9.54578804616684
      ],
      [
        "▁team",
        -9.548439429003828
      ],
      [
        "▁commissione",
        -9.549194594763478
      ],
      [
        "▁seguire",
        -9.549248701795737
      ],
      [
        "▁pensare",
        -9.55200936896468
      ],
      [
        "▁materia",
        -9.55257252657689
      ],
      [
        "▁sale",
        -9.55291675994066
      ],
      [
        "▁soggetti",
        -9.554082171910805
      ],
      [
        "▁alcun",
        -9.554723218069045
      ],
      [
        "▁supporto",
        -9.555560438121834
      ],
      [
        "▁with",
        -9.55564651528659
      ],
      [
        "▁credo",
        -9.555672204832216
      ],
      [
        "▁luoghi",
        -9.557865664880104
      ],
      [
        "ang",
        -9.55898340559872
      ],
      [
        "▁reale",
        -9.559891017941592
      ],
      [
        "▁rendere",
        -9.560370375287713
      ],
      [
        "▁figlio",
        -9.56037625410651
      ],
      [
        "▁strumento",
        -9.560418736782058
      ],
      [
        "una",
        -9.560993900478325
      ],
      [
        "tre",
        -9.562885776972772
      ],
      [
        "▁sezione",
        -9.563163073727484
      ],
      [
        "▁usare",
        -9.56446962640032
      ],
      [
        "▁coloro",
        -9.564566933269331
      ],
      [
        "etti",
        -9.56575037513629
      ],
      [
        "▁magari",
        -9.566834495449587
      ],
      [
        "▁categoria",
        -9.56931054104302
      ],
      [
        "▁realizzazione",
        -9.569582210372182
      ],
      [
        "▁comunale",
        -9.569902503291514
      ],
      [
        "▁precedente",
        -9.571532864494433
      ],
      [
        "▁dettagli",
        -9.57168677191902
      ],
      [
        "▁vanno",
        -9.57258318317593
      ],
      [
        "▁soluzioni",
        -9.573376044512846
      ],
      [
        "▁val",
        -9.573798131538414
      ],
      [
        "▁occasione",
        -9.575497446691966
      ],
      [
        "▁conoscenza",
        -9.575575319845637
      ],
      [
        "▁settimane",
        -9.577962944674065
      ],
      [
        "▁confronti",
        -9.578330394400686
      ],
      [
        "▁corte",
        -9.584255067291892
      ],
      [
        "▁spese",
        -9.585130152050892
      ],
      [
        "isola",
        -9.585996243462562
      ],
      [
        "organizzazione",
        -9.586320079021949
      ],
      [
        "▁tecnica",
        -9.587029731955928
      ],
      [
        "▁scopo",
        -9.587795165431396
      ],
      [
        "▁avete",
        -9.58868518577211
      ],
      [
        "▁giovanni",
        -9.58939709058791
      ],
      [
        "▁previsto",
        -9.592342893529336
      ],
      [
        "▁man",
        -9.59298444206456
      ],
      [
        "istituto",
        -9.593340231179578
      ],
      [
        "▁messo",
        -9.59385530002486
      ],
      [
        "▁dimensioni",
        -9.594536996174362
      ],
      [
        "▁google",
        -9.59630601896264
      ],
      [
        "▁trovato",
        -9.598378648545802
      ],
      [
        "▁metà",
        -9.599181879402565
      ],
      [
        "▁uniti",
        -9.599752407579846
      ],
      [
        "▁sì",
        -9.600510242611074
      ],
      [
        "utente",
        -9.60143194097881
      ],
      [
        "▁miei",
        -9.601585580434962
      ],
      [
        "rono",
        -9.601688971364176
      ],
      [
        "▁potrebbero",
        -9.601722038868674
      ],
      [
        "▁tecnologia",
        -9.601820499538125
      ],
      [
        "▁parola",
        -9.601957533297425
      ],
      [
        "▁semplicemente",
        -9.602606011088357
      ],
      [
        "▁direzione",
        -9.604015605282749
      ],
      [
        "▁medico",
        -9.604149065400792
      ],
      [
        "etta",
        -9.604944811173947
      ],
      [
        "▁parco",
        -9.605778502448912
      ],
      [
        "▁differenza",
        -9.606073540724118
      ],
      [
        "▁partecipazione",
        -9.608178994041824
      ],
      [
        "ner",
        -9.610216388750942
      ],
      [
        "▁lavorare",
        -9.611260761501944
      ],
      [
        "▁sé",
        -9.61309854061173
      ],
      [
        "▁responsabilità",
        -9.614345122708697
      ],
      [
        "evento",
        -9.615027925247894
      ],
      [
        "trice",
        -9.616602283683456
      ],
      [
        "▁diventare",
        -9.616953958443018
      ],
      [
        "▁madre",
        -9.618182367355882
      ],
      [
        "▁legno",
        -9.618491130219796
      ],
      [
        "▁corsi",
        -9.619145203163027
      ],
      [
        "▁ideale",
        -9.61998595215597
      ],
      [
        "▁paolo",
        -9.62061503768942
      ],
      [
        "▁tecniche",
        -9.621484789095003
      ],
      [
        "▁speciale",
        -9.622221605075122
      ],
      [
        ">",
        -9.62232924422775
      ],
      [
        "▁mette",
        -9.623942107420303
      ],
      [
        "▁pubblicato",
        -9.6251102221213
      ],
      [
        "sia",
        -9.625307634226852
      ],
      [
        "▁soli",
        -9.625409293756755
      ],
      [
        "▁massima",
        -9.625852533260987
      ],
      [
        "▁pubblici",
        -9.625972809532325
      ],
      [
        "▁contatto",
        -9.627273402277272
      ],
      [
        "▁probabilmente",
        -9.628313666570332
      ],
      [
        "anni",
        -9.628531473256094
      ],
      [
        "▁libera",
        -9.628883596109048
      ],
      [
        "tico",
        -9.630245678623403
      ],
      [
        "▁durata",
        -9.63465942055007
      ],
      [
        "▁ba",
        -9.635303190850362
      ],
      [
        "enne",
        -9.637435764592276
      ],
      [
        "▁costa",
        -9.637553512186638
      ],
      [
        "▁incontri",
        -9.637709111330777
      ],
      [
        "età",
        -9.639258529662444
      ],
      [
        "▁garantire",
        -9.640036894169643
      ],
      [
        "▁lunga",
        -9.640317538706473
      ],
      [
        "▁valori",
        -9.641206202698896
      ],
      [
        "▁professionale",
        -9.641499621380008
      ],
      [
        "▁opzioni",
        -9.641721388591687
      ],
      [
        "▁cu",
        -9.642224987547044
      ],
      [
        "▁art",
        -9.643398369217012
      ],
      [
        "▁resta",
        -9.645824369699753
      ],
      [
        "▁facebook",
        -9.64723634179395
      ],
      [
        "unica",
        -9.647378143567058
      ],
      [
        "▁potranno",
        -9.647396084374757
      ],
      [
        "▁radio",
        -9.64758817199064
      ],
      [
        "▁premio",
        -9.64813288615861
      ],
      [
        "otti",
        -9.6482739344623
      ],
      [
        "▁sicuro",
        -9.65016045226871
      ],
      [
        "▁novità",
        -9.650565831905956
      ],
      [
        "europa",
        -9.651608707768316
      ],
      [
        "▁gente",
        -9.65203106572821
      ],
      [
        "▁pazienti",
        -9.652356603016734
      ],
      [
        "▁spazi",
        -9.65251276250377
      ],
      [
        "ssi",
        -9.652694501968345
      ],
      [
        "▁dovuto",
        -9.65321146468112
      ],
      [
        "▁club",
        -9.654449527581324
      ],
      [
        "▁portato",
        -9.654813825233395
      ],
      [
        "▁quota",
        -9.655350107951644
      ],
      [
        "▁completa",
        -9.656596676388942
      ],
      [
        "▁tal",
        -9.656922898138284
      ],
      [
        "▁marco",
        -9.657330976815494
      ],
      [
        "▁sociali",
        -9.65780126231556
      ],
      [
        "nza",
        -9.65782991347693
      ],
      [
        "▁aree",
        -9.658370316061989
      ],
      [
        "▁voglia",
        -9.659150816401583
      ],
      [
        "impresa",
        -9.659325296309351
      ],
      [
        "▁fatta",
        -9.6602065742237
      ],
      [
        "▁torino",
        -9.66038080582849
      ],
      [
        "=",
        -9.660571548110612
      ],
      [
        "▁esiste",
        -9.661866903099533
      ],
      [
        "▁dedicato",
        -9.662260018568569
      ],
      [
        "▁festival",
        -9.663045312988563
      ],
      [
        "▁politiche",
        -9.66309949833897
      ],
      [
        "▁particolarmente",
        -9.663175664482225
      ],
      [
        "stra",
        -9.663202668596368
      ],
      [
        "▁dovrà",
        -9.663327637570276
      ],
      [
        "▁risulta",
        -9.66527578914275
      ],
      [
        "▁nessun",
        -9.665527483776447
      ],
      [
        "ture",
        -9.667542602438177
      ],
      [
        "▁edizione",
        -9.668557053049764
      ],
      [
        "▁domande",
        -9.669165135141936
      ],
      [
        "▁cinema",
        -9.67047681414903
      ],
      [
        "▁culturale",
        -9.671926667114406
      ],
      [
        "▁para",
        -9.67232206919541
      ],
      [
        "▁strutture",
        -9.673570881077092
      ],
      [
        "▁serve",
        -9.674021574350965
      ],
      [
        "▁bio",
        -9.675017160041367
      ],
      [
        "▁realizzare",
        -9.676001406653263
      ],
      [
        "▁lavoratori",
        -9.676652402378933
      ],
      [
        "▁rimane",
        -9.677289953359717
      ],
      [
        "▁capitale",
        -9.67785203682572
      ],
      [
        "▁decreto",
        -9.67842383694737
      ],
      [
        "▁responsabile",
        -9.679912138024864
      ],
      [
        "▁dentro",
        -9.679979310575842
      ],
      [
        "▁genitori",
        -9.680214787391764
      ],
      [
        "▁proposta",
        -9.68040892254062
      ],
      [
        "▁animali",
        -9.680817352736032
      ],
      [
        "nato",
        -9.681177268664966
      ],
      [
        "▁sinistra",
        -9.68174128731941
      ],
      [
        "▁realizzato",
        -9.684131489284976
      ],
      [
        "▁piu",
        -9.685516834497973
      ],
      [
        "occasione",
        -9.685536519665922
      ],
      [
        "▁migliorare",
        -9.68567668547152
      ],
      [
        "▁you",
        -9.686553464205955
      ],
      [
        "▁veramente",
        -9.687014963542673
      ],
      [
        "▁civile",
        -9.688097418141597
      ],
      [
        "▁potete",
        -9.688378880454788
      ],
      [
        "▁gratis",
        -9.688635399279937
      ],
      [
        "inter",
        -9.688791505538829
      ],
      [
        "▁cercare",
        -9.688986258830283
      ],
      [
        "▁villa",
        -9.690272267500482
      ],
      [
        "▁merito",
        -9.690365830146776
      ],
      [
        "▁blog",
        -9.690439508393204
      ],
      [
        "▁presto",
        -9.690869486777968
      ],
      [
        "▁capelli",
        -9.691062812825496
      ],
      [
        "▁purtroppo",
        -9.69188489094865
      ],
      [
        "▁intorno",
        -9.692121020259735
      ],
      [
        "▁dietro",
        -9.69396378904175
      ],
      [
        "▁vale",
        -9.69478247278493
      ],
      [
        "▁interesse",
        -9.697178111929292
      ],
      [
        "mon",
        -9.69769227422968
      ],
      [
        "▁acquistare",
        -9.697835414839822
      ],
      [
        "▁inizia",
        -9.699445687778349
      ],
      [
        "▁cor",
        -9.70037145271923
      ],
      [
        "▁quantità",
        -9.702407693950086
      ],
      [
        "mer",
        -9.702536122957596
      ],
      [
        "▁sola",
        -9.702817973390871
      ],
      [
        "▁chiaro",
        -9.702921269325612
      ],
      [
        "▁forme",
        -9.704220776248354
      ],
      [
        "tri",
        -9.704478314259616
      ],
      [
        "▁pieno",
        -9.7060704893216
      ],
      [
        "▁standard",
        -9.706413861306178
      ],
      [
        "ser",
        -9.707688575292124
      ],
      [
        "▁blu",
        -9.707892731823836
      ],
      [
        "▁memoria",
        -9.70821972351204
      ],
      [
        "▁idee",
        -9.708717918272043
      ],
      [
        "▁pure",
        -9.709645384019264
      ],
      [
        "▁assolutamente",
        -9.711319868292618
      ],
      [
        "▁computer",
        -9.71146696212103
      ],
      [
        "accordo",
        -9.71155372418181
      ],
      [
        "▁libertà",
        -9.71226873348116
      ],
      [
        "▁jo",
        -9.712607407060124
      ],
      [
        "▁negozi",
        -9.713072093969831
      ],
      [
        "▁don",
        -9.714191995040968
      ],
      [
        "▁europa",
        -9.714252161516658
      ],
      [
        "acquisto",
        -9.714400774509254
      ],
      [
        "▁stelle",
        -9.714957680501984
      ],
      [
        "▁soldi",
        -9.715378948950232
      ],
      [
        "ger",
        -9.715560273592704
      ],
      [
        "▁campagna",
        -9.715845877200085
      ],
      [
        "▁utili",
        -9.716076617793952
      ],
      [
        "▁livelli",
        -9.716297221799625
      ],
      [
        "tion",
        -9.717757857028522
      ],
      [
        "▁partito",
        -9.717977066159651
      ],
      [
        "gno",
        -9.71980039945598
      ],
      [
        "ven",
        -9.720219086933207
      ],
      [
        "▁campionato",
        -9.720577121098486
      ],
      [
        "▁pu",
        -9.720808160632082
      ],
      [
        "▁diretta",
        -9.721635633173232
      ],
      [
        "▁dieta",
        -9.722991902332742
      ],
      [
        "▁vittoria",
        -9.723308938195249
      ],
      [
        "rica",
        -9.723473549616282
      ],
      [
        "ella",
        -9.72360609537059
      ],
      [
        "▁facilmente",
        -9.723917564688282
      ],
      [
        "▁scuole",
        -9.724307781542787
      ],
      [
        "▁velocità",
        -9.725396416119056
      ],
      [
        "▁specie",
        -9.726748726982011
      ],
      [
        "▁preso",
        -9.726894027933982
      ],
      [
        "ghe",
        -9.727122273068645
      ],
      [
        "▁lista",
        -9.727125567282464
      ],
      [
        "▁ministro",
        -9.727724139469728
      ],
      [
        "▁by",
        -9.727922513806208
      ],
      [
        "▁top",
        -9.72817980266698
      ],
      [
        "|",
        -9.729030888237832
      ],
      [
        "▁passare",
        -9.729223552496444
      ],
      [
        "▁abbastanza",
        -9.729435478492029
      ],
      [
        "▁soggiorno",
        -9.7299671260184
      ],
      [
        "▁scena",
        -9.730680862011749
      ],
      [
        "▁rosso",
        -9.730933638042943
      ],
      [
        "▁lascia",
        -9.731733380893846
      ],
      [
        "▁palazzo",
        -9.73184711513122
      ],
      [
        "▁incontro",
        -9.73191181383333
      ],
      [
        "▁raccolta",
        -9.732168756698837
      ],
      [
        "col",
        -9.73321321804567
      ],
      [
        "nto",
        -9.73436632035829
      ],
      [
        "sto",
        -9.735268937308136
      ],
      [
        "▁nonché",
        -9.736541316620777
      ],
      [
        "#",
        -9.739837101174064
      ],
      [
        "▁consigli",
        -9.74007620603637
      ],
      [
        "▁polizia",
        -9.741411952522704
      ],
      [
        "▁potere",
        -9.74210241923221
      ],
      [
        "▁libero",
        -9.742836252167068
      ],
      [
        "▁metodo",
        -9.744488880004493
      ],
      [
        "▁gas",
        -9.745011647934096
      ],
      [
        "▁gol",
        -9.745020394352014
      ],
      [
        "▁danno",
        -9.745206763506395
      ],
      [
        "▁eventuali",
        -9.745787917650548
      ],
      [
        "▁partenza",
        -9.74638407537498
      ],
      [
        "enza",
        -9.747010598481635
      ],
      [
        "▁ritorno",
        -9.747821991594224
      ],
      [
        "▁poiché",
        -9.749064054868818
      ],
      [
        "▁completo",
        -9.74966890031331
      ],
      [
        "▁quei",
        -9.750209698909906
      ],
      [
        "▁bu",
        -9.75109506958809
      ],
      [
        "come",
        -9.752508462521844
      ],
      [
        "▁prende",
        -9.752832275695749
      ],
      [
        "▁commerciali",
        -9.753228240513716
      ],
      [
        "▁ottimo",
        -9.75345611165394
      ],
      [
        "▁pagine",
        -9.753465587547964
      ],
      [
        "▁originale",
        -9.754064425535375
      ],
      [
        "▁wi",
        -9.755055409930067
      ],
      [
        "▁numerosi",
        -9.7556673006428
      ],
      [
        "▁comma",
        -9.756097911087869
      ],
      [
        "immagine",
        -9.756166654085051
      ],
      [
        "▁danni",
        -9.75641688117065
      ],
      [
        "▁festa",
        -9.756480030006392
      ],
      [
        "via",
        -9.75739767266761
      ],
      [
        "unione",
        -9.759093854667858
      ],
      [
        "▁favore",
        -9.760358013816257
      ],
      [
        "▁bello",
        -9.761263259796106
      ],
      [
        "vis",
        -9.761407273594696
      ],
      [
        "▁gratuito",
        -9.76155050808328
      ],
      [
        "▁affrontare",
        -9.761599673246184
      ],
      [
        "land",
        -9.76225940001467
      ],
      [
        "▁protagonista",
        -9.762419212106504
      ],
      [
        "▁ragione",
        -9.762680146914924
      ],
      [
        "▁we",
        -9.766245117579544
      ],
      [
        "atto",
        -9.768009229840114
      ],
      [
        "▁santa",
        -9.768736861191682
      ],
      [
        "▁telefono",
        -9.769005237678638
      ],
      [
        "▁banca",
        -9.769149281552572
      ],
      [
        "▁tutela",
        -9.770080153132987
      ],
      [
        "▁misure",
        -9.77389433023127
      ],
      [
        "▁passione",
        -9.774298829932878
      ],
      [
        "abile",
        -9.77431084382222
      ],
      [
        "▁maggiori",
        -9.775401190429829
      ],
      [
        "▁contenuto",
        -9.77621424695856
      ],
      [
        "▁macchina",
        -9.776365487312011
      ],
      [
        "▁farlo",
        -9.778724084866043
      ],
      [
        "▁pertanto",
        -9.779368577649953
      ],
      [
        "▁sp",
        -9.779525673526669
      ],
      [
        "ent",
        -9.780030140189934
      ],
      [
        "▁utilizzato",
        -9.78023759517128
      ],
      [
        "▁nasce",
        -9.781012033430637
      ],
      [
        "gre",
        -9.781204232161128
      ],
      [
        "isti",
        -9.781334698204928
      ],
      [
        "▁aspetti",
        -9.781604584142316
      ],
      [
        "▁racconta",
        -9.782935247380967
      ],
      [
        "▁scelto",
        -9.785814447150454
      ],
      [
        "▁cap",
        -9.785931615931982
      ],
      [
        "ura",
        -9.786435806565116
      ],
      [
        "▁oggetto",
        -9.788145059496774
      ],
      [
        "▁par",
        -9.788493371316186
      ],
      [
        "▁gruppi",
        -9.788547008827871
      ],
      [
        "▁effettuare",
        -9.788880474146737
      ],
      [
        "the",
        -9.788920819166597
      ],
      [
        "men",
        -9.789028589582198
      ],
      [
        "▁valutazione",
        -9.789415420245408
      ],
      [
        "▁conferma",
        -9.79014528804937
      ],
      [
        "mar",
        -9.79094180939332
      ],
      [
        "▁aperto",
        -9.79133428792481
      ],
      [
        "▁carico",
        -9.791861717631525
      ],
      [
        "incontro",
        -9.792130859722702
      ],
      [
        "▁formato",
        -9.792550127633811
      ],
      [
        "and",
        -9.792590117587997
      ],
      [
        "▁zone",
        -9.792847904011262
      ],
      [
        "▁articoli",
        -9.792937328203443
      ],
      [
        "▁veloce",
        -9.79324660984603
      ],
      [
        "▁messa",
        -9.793856423955829
      ],
      [
        "amministrazione",
        -9.79423602261947
      ],
      [
        "▁malattia",
        -9.794605810931415
      ],
      [
        "▁dobbiamo",
        -9.79607815661481
      ],
      [
        "▁lingua",
        -9.796936232224729
      ],
      [
        "▁risposte",
        -9.79705608482612
      ],
      [
        "▁partner",
        -9.79766533276757
      ],
      [
        "▁ka",
        -9.798307775079763
      ],
      [
        "▁medio",
        -9.79856472454772
      ],
      [
        "ello",
        -9.799994148324112
      ],
      [
        "▁piccole",
        -9.801629034261405
      ],
      [
        "▁intervento",
        -9.802236706764226
      ],
      [
        "▁cos",
        -9.802808433107767
      ],
      [
        "▁porto",
        -9.803209382276908
      ],
      [
        "▁solito",
        -9.803232864630674
      ],
      [
        "▁devi",
        -9.803472509358343
      ],
      [
        "▁giocare",
        -9.803813252531912
      ],
      [
        "▁ministero",
        -9.803845673880106
      ],
      [
        "▁miliardi",
        -9.804014112786144
      ],
      [
        "▁entrambi",
        -9.804983872762628
      ],
      [
        "tivo",
        -9.805726358013285
      ],
      [
        "▁lato",
        -9.806132485995407
      ],
      [
        "▁faccia",
        -9.808064939810068
      ],
      [
        "▁età",
        -9.808186308778916
      ],
      [
        "▁passa",
        -9.808293989914675
      ],
      [
        "tici",
        -9.808482773605846
      ],
      [
        "▁destra",
        -9.809486201133724
      ],
      [
        "▁rosa",
        -9.809919311924666
      ],
      [
        "intero",
        -9.810275345464966
      ],
      [
        "zze",
        -9.810919499403424
      ],
      [
        "▁diverso",
        -9.810922603050477
      ],
      [
        "▁oggetti",
        -9.81098950371574
      ],
      [
        "▁moda",
        -9.81112586646702
      ],
      [
        "▁esperti",
        -9.811838949659755
      ],
      [
        "atti",
        -9.813433343146892
      ],
      [
        "▁avevano",
        -9.815172273096008
      ],
      [
        "▁attualmente",
        -9.81532098730318
      ],
      [
        "▁digitale",
        -9.81540659782464
      ],
      [
        "▁trovano",
        -9.81559002224667
      ],
      [
        "▁italiane",
        -9.81589844064691
      ],
      [
        "▁uso",
        -9.816211761428464
      ],
      [
        "▁set",
        -9.81702837839756
      ],
      [
        "▁difesa",
        -9.817143109602116
      ],
      [
        "▁leggi",
        -9.817467646584229
      ],
      [
        "▁sugli",
        -9.817606850922427
      ],
      [
        "▁sfida",
        -9.818092671871902
      ],
      [
        "offerta",
        -9.81921275296369
      ],
      [
        "▁professionisti",
        -9.820562162651909
      ],
      [
        "▁cambiare",
        -9.820754851363152
      ],
      [
        "▁propone",
        -9.821975018519955
      ],
      [
        "▁link",
        -9.82198661301337
      ],
      [
        "arlo",
        -9.822497659573273
      ],
      [
        "▁scoprire",
        -9.822595285899649
      ],
      [
        "▁repubblica",
        -9.822910652065538
      ],
      [
        "▁serata",
        -9.823774150284908
      ],
      [
        "ghi",
        -9.823820129088393
      ],
      [
        "▁classifica",
        -9.824127550222572
      ],
      [
        "▁compagnia",
        -9.824169340195567
      ],
      [
        "attenzione",
        -9.824206090993195
      ],
      [
        "stica",
        -9.8247235175334
      ],
      [
        "▁costruzione",
        -9.825584229808031
      ],
      [
        "▁decisione",
        -9.826013846779873
      ],
      [
        "▁richiede",
        -9.826108906658874
      ],
      [
        "rico",
        -9.826137436481178
      ],
      [
        "our",
        -9.82723343627542
      ],
      [
        "▁avrà",
        -9.82791699190314
      ],
      [
        "▁economica",
        -9.828116834366076
      ],
      [
        "▁lega",
        -9.829446984990875
      ],
      [
        "▁regole",
        -9.830112428375909
      ],
      [
        "nata",
        -9.830164479174892
      ],
      [
        "▁personaggi",
        -9.831892944409862
      ],
      [
        "▁luca",
        -9.833481277482218
      ],
      [
        "▁lì",
        -9.833547515366158
      ],
      [
        "▁fornire",
        -9.833728403559991
      ],
      [
        "▁st",
        -9.834554324142005
      ],
      [
        "▁secolo",
        -9.834574231337005
      ],
      [
        "▁alcolismo",
        -9.834580057134463
      ],
      [
        "▁tradizione",
        -9.835062390430837
      ],
      [
        "▁riesce",
        -9.836833095680417
      ],
      [
        "▁presentato",
        -9.837092085891836
      ],
      [
        "▁venerdì",
        -9.838683430351288
      ],
      [
        "▁smartphone",
        -9.839356279812849
      ],
      [
        "▁sostegno",
        -9.83990800819664
      ],
      [
        "▁pronto",
        -9.840290937409325
      ],
      [
        "▁chiede",
        -9.840326646031068
      ],
      [
        "▁naturali",
        -9.840349615835343
      ],
      [
        "eranno",
        -9.84047961703008
      ],
      [
        "▁dedicata",
        -9.840845966215852
      ],
      [
        "▁imp",
        -9.841000638778636
      ],
      [
        "▁forze",
        -9.841262910718877
      ],
      [
        "▁paura",
        -9.842332325010553
      ],
      [
        "▁interessante",
        -9.842616776103288
      ],
      [
        "▁figura",
        -9.843137374406524
      ],
      [
        "nico",
        -9.843617870828504
      ],
      [
        "▁finalmente",
        -9.844793358333895
      ],
      [
        "▁spettacolo",
        -9.845093985729097
      ],
      [
        "▁diretto",
        -9.84538675971817
      ],
      [
        "▁precedenti",
        -9.845409358365036
      ],
      [
        "▁presentazione",
        -9.846315865012054
      ],
      [
        "▁tenere",
        -9.846757397451766
      ],
      [
        "unico",
        -9.846785478658624
      ],
      [
        "▁speciali",
        -9.84702690025572
      ],
      [
        "atori",
        -9.84710819262394
      ],
      [
        "▁operatori",
        -9.847517205742196
      ],
      [
        "▁giardino",
        -9.847552867252007
      ],
      [
        "▁momenti",
        -9.847931232526282
      ],
      [
        "▁essendo",
        -9.848819703484397
      ],
      [
        "▁poche",
        -9.849140800042395
      ],
      [
        "▁mezzi",
        -9.849339433989558
      ],
      [
        "▁museo",
        -9.849897709280564
      ],
      [
        "▁anzi",
        -9.850854750026096
      ],
      [
        "▁ulteriori",
        -9.8515510994079
      ],
      [
        "▁ultime",
        -9.852382056380176
      ],
      [
        "dal",
        -9.852523216270503
      ],
      [
        "▁giuseppe",
        -9.85272270549283
      ],
      [
        "▁mor",
        -9.852853701492355
      ],
      [
        "rebbe",
        -9.853228884964356
      ],
      [
        "▁cercando",
        -9.853748647140474
      ],
      [
        "▁lettura",
        -9.854871653465343
      ],
      [
        "▁tour",
        -9.854898314952884
      ],
      [
        "▁pressione",
        -9.854986316660758
      ],
      [
        "▁stiamo",
        -9.85613607803582
      ],
      [
        "▁mobili",
        -9.857337378636442
      ],
      [
        "▁bellezza",
        -9.85739214599856
      ],
      [
        "min",
        -9.85777439499501
      ],
      [
        "epoca",
        -9.858004075287225
      ],
      [
        "estate",
        -9.859097570179774
      ],
      [
        "▁insomma",
        -9.859564628704144
      ],
      [
        "eria",
        -9.860043034952565
      ],
      [
        "▁confronto",
        -9.86005534056725
      ],
      [
        "▁cento",
        -9.860591756598277
      ],
      [
        "▁business",
        -9.86081162942786
      ],
      [
        "▁condizione",
        -9.861292428557766
      ],
      [
        "▁noto",
        -9.861468851771257
      ],
      [
        "▁richieste",
        -9.863106820760123
      ],
      [
        "▁passaggio",
        -9.86316662089045
      ],
      [
        "economia",
        -9.86353874101228
      ],
      [
        "▁mattina",
        -9.86391349466578
      ],
      [
        "▁dieci",
        -9.864098156348126
      ],
      [
        "▁assistenza",
        -9.864118369828963
      ],
      [
        "▁atto",
        -9.864370454416225
      ],
      [
        "▁mantenere",
        -9.864417047880664
      ],
      [
        "▁fuoco",
        -9.864468734071815
      ],
      [
        "▁natale",
        -9.86611364496591
      ],
      [
        "▁pal",
        -9.866392194549354
      ],
      [
        "zzare",
        -9.867274058335964
      ],
      [
        "▁spe",
        -9.867817432124864
      ],
      [
        "▁dispositivo",
        -9.869424977373574
      ],
      [
        "▁ricorda",
        -9.870303202635554
      ],
      [
        "ant",
        -9.870470591760682
      ],
      [
        "▁offrire",
        -9.87092557735564
      ],
      [
        "accesso",
        -9.872055097131948
      ],
      [
        "▁spirito",
        -9.8724597916223
      ],
      [
        "▁impianti",
        -9.872843524859489
      ],
      [
        "▁mobile",
        -9.87393445723034
      ],
      [
        "▁dallo",
        -9.873967371517551
      ],
      [
        "▁perfetto",
        -9.8745786377242
      ],
      [
        "▁funzioni",
        -9.874580808907467
      ],
      [
        "▁occorre",
        -9.87493495980529
      ],
      [
        "▁andrea",
        -9.875688006438232
      ],
      [
        "▁essa",
        -9.875764538733955
      ],
      [
        "▁messaggio",
        -9.87601402806439
      ],
      [
        "▁fini",
        -9.87711251068944
      ],
      [
        "▁gu",
        -9.877777364001638
      ],
      [
        "▁inglese",
        -9.878684937492617
      ],
      [
        "applicazione",
        -9.879266173607617
      ],
      [
        "▁riguardo",
        -9.879288144266956
      ],
      [
        "▁verità",
        -9.880591779745298
      ],
      [
        "▁minimo",
        -9.880617787110332
      ],
      [
        "▁prestazioni",
        -9.881526780642046
      ],
      [
        "▁sci",
        -9.881544461721791
      ],
      [
        "▁porte",
        -9.881690433759609
      ],
      [
        "▁utilizzando",
        -9.883460119300812
      ],
      [
        "▁leader",
        -9.883497649027674
      ],
      [
        "▁sal",
        -9.88665458967882
      ],
      [
        "▁devo",
        -9.886993260764443
      ],
      [
        "autore",
        -9.88739991910778
      ],
      [
        "▁ricevere",
        -9.888132884007277
      ],
      [
        "▁internazionali",
        -9.889051685453166
      ],
      [
        "▁piattaforma",
        -9.890085336317249
      ],
      [
        "▁europeo",
        -9.890377270867964
      ],
      [
        "▁rec",
        -9.890575915495656
      ],
      [
        "▁energia",
        -9.892177669124466
      ],
      [
        "▁ris",
        -9.892437945675727
      ],
      [
        "nze",
        -9.894172757761956
      ],
      [
        "▁recente",
        -9.894408120443568
      ],
      [
        "▁motivi",
        -9.894470347525232
      ],
      [
        "▁fiducia",
        -9.89488766031558
      ],
      [
        "zzazione",
        -9.895241855810111
      ],
      [
        "▁bologna",
        -9.896678202614734
      ],
      [
        "fil",
        -9.897409662173589
      ],
      [
        "▁lettera",
        -9.897576064257844
      ],
      [
        "ario",
        -9.897587853835844
      ],
      [
        "ber",
        -9.897622537709182
      ],
      [
        "▁addirittura",
        -9.897911936612232
      ],
      [
        "▁composto",
        -9.901167083679333
      ],
      [
        "▁amore",
        -9.90156274715293
      ],
      [
        "cchi",
        -9.901629378313404
      ],
      [
        "cer",
        -9.903095222629922
      ],
      [
        "▁trasporto",
        -9.903348585057856
      ],
      [
        "@",
        -9.903958659614938
      ],
      [
        "cci",
        -9.904507568567611
      ],
      [
        "▁accessori",
        -9.90530714320094
      ],
      [
        "▁pace",
        -9.905556809749124
      ],
      [
        "▁annunci",
        -9.905740742698155
      ],
      [
        "▁tornare",
        -9.906813402268844
      ],
      [
        "ggio",
        -9.909544374810803
      ],
      [
        "▁giocatori",
        -9.909550494648292
      ],
      [
        "▁obiettivi",
        -9.909570812280307
      ],
      [
        "▁chiave",
        -9.91006733529696
      ],
      [
        "rò",
        -9.911594589242616
      ],
      [
        "▁particolari",
        -9.91271297505497
      ],
      [
        "intervento",
        -9.912873915759173
      ],
      [
        "▁brand",
        -9.91348450078227
      ],
      [
        "eremo",
        -9.913703168122304
      ],
      [
        "anche",
        -9.914210456936525
      ],
      [
        "▁visione",
        -9.917435975187004
      ],
      [
        "▁efficace",
        -9.917543684375635
      ],
      [
        "▁home",
        -9.91775203604498
      ],
      [
        "▁politico",
        -9.918106703462792
      ],
      [
        "ucci",
        -9.918279381786922
      ],
      [
        "▁numeri",
        -9.918600741090296
      ],
      [
        "▁stazione",
        -9.919200533885483
      ],
      [
        "val",
        -9.919594557195868
      ],
      [
        "▁cambio",
        -9.920411774162972
      ],
      [
        "out",
        -9.921192968982478
      ],
      [
        "▁contesto",
        -9.921617722173982
      ],
      [
        "▁pare",
        -9.922225531420082
      ],
      [
        "▁linee",
        -9.9225004987288
      ],
      [
        "▁consegna",
        -9.922811678315789
      ],
      [
        "intera",
        -9.924865009776658
      ],
      [
        "▁sangue",
        -9.925258855654445
      ],
      [
        "▁firenze",
        -9.925862853200774
      ],
      [
        "▁vive",
        -9.92708975382733
      ],
      [
        "▁popolazione",
        -9.927390602450648
      ],
      [
        "nica",
        -9.927629855714535
      ],
      [
        "iniziativa",
        -9.928755189713208
      ],
      [
        "▁torna",
        -9.92880715076029
      ],
      [
        "▁funziona",
        -9.930104746583408
      ],
      [
        "▁micro",
        -9.930116485135674
      ],
      [
        "▁voluto",
        -9.931477036710817
      ],
      [
        "▁gesù",
        -9.931545567791265
      ],
      [
        "▁documento",
        -9.931966619884005
      ],
      [
        "▁venezia",
        -9.93261007094892
      ],
      [
        "▁garanzia",
        -9.933530858583197
      ],
      [
        "lino",
        -9.93354368399342
      ],
      [
        "▁beni",
        -9.933599334814245
      ],
      [
        "▁passi",
        -9.934392070930368
      ],
      [
        "▁domani",
        -9.934661503381228
      ],
      [
        "▁sensi",
        -9.934715996463677
      ],
      [
        "gar",
        -9.934871002395916
      ],
      [
        "▁windows",
        -9.934911883762522
      ],
      [
        "▁programmi",
        -9.9351585239704
      ],
      [
        "▁farmaci",
        -9.93524289993728
      ],
      [
        "▁scaricare",
        -9.935312136439778
      ],
      [
        "▁nemmeno",
        -9.935402048201802
      ],
      [
        "▁aumento",
        -9.937296237102515
      ],
      [
        "▁centri",
        -9.938004504858156
      ],
      [
        "▁tipi",
        -9.93805514820069
      ],
      [
        "▁disco",
        -9.938155990527443
      ],
      [
        "▁recensioni",
        -9.93822865365706
      ],
      [
        "tiva",
        -9.939519904075825
      ],
      [
        "▁negozio",
        -9.939533197099722
      ],
      [
        "▁segno",
        -9.940687742666851
      ],
      [
        "bar",
        -9.941794709672854
      ],
      [
        "mini",
        -9.942237018542984
      ],
      [
        "▁pomeriggio",
        -9.94224510485652
      ],
      [
        "▁effetto",
        -9.94293425849046
      ],
      [
        "vers",
        -9.943392122161423
      ],
      [
        "▁creato",
        -9.943906577585384
      ],
      [
        "▁pan",
        -9.94456474214597
      ],
      [
        "▁fiori",
        -9.944871976297412
      ],
      [
        "▁verranno",
        -9.945038737350687
      ],
      [
        "▁coppia",
        -9.94504198150952
      ],
      [
        "▁contributo",
        -9.94645798048556
      ],
      [
        "ation",
        -9.94922748459693
      ],
      [
        "elle",
        -9.949823868160996
      ],
      [
        "▁entrare",
        -9.950152384104332
      ],
      [
        "mail",
        -9.95059012320232
      ],
      [
        "▁siete",
        -9.951216014701664
      ],
      [
        "▁nazionali",
        -9.951670083969772
      ],
      [
        "▁verifica",
        -9.95168163937862
      ],
      [
        "▁atti",
        -9.952209396932558
      ],
      [
        "▁pensiero",
        -9.952290908952383
      ],
      [
        "▁ch",
        -9.953106881869692
      ],
      [
        "mus",
        -9.953223074827331
      ],
      [
        "▁rapporti",
        -9.95368160612106
      ],
      [
        "can",
        -9.953880703491784
      ],
      [
        "▁promozione",
        -9.95464147699527
      ],
      [
        "ggi",
        -9.954738790961068
      ],
      [
        "▁prove",
        -9.955280532570937
      ],
      [
        "▁partecipare",
        -9.95704807619201
      ],
      [
        "▁sto",
        -9.957102354548464
      ],
      [
        "▁conseguenza",
        -9.95789384579124
      ],
      [
        "▁proposte",
        -9.95804957380211
      ],
      [
        "▁regioni",
        -9.958123020057796
      ],
      [
        "▁papa",
        -9.958423886827472
      ],
      [
        "▁complesso",
        -9.958577313259095
      ],
      [
        "▁piacere",
        -9.960355831158072
      ],
      [
        "asse",
        -9.960404514388962
      ],
      [
        "agenzia",
        -9.962749328300964
      ],
      [
        "ssima",
        -9.963518171658675
      ],
      [
        "▁provare",
        -9.964198118255691
      ],
      [
        "▁posta",
        -9.965284351871814
      ],
      [
        "▁stare",
        -9.965770626909004
      ],
      [
        "aggio",
        -9.965846880935745
      ],
      [
        "ufficio",
        -9.966849480277634
      ],
      [
        "▁possibili",
        -9.966855753427248
      ],
      [
        "▁manifestazione",
        -9.96691185049408
      ],
      [
        "▁iniziato",
        -9.967029106118831
      ],
      [
        "▁antonio",
        -9.9677069759808
      ],
      [
        "▁gal",
        -9.967729700713363
      ],
      [
        "▁vino",
        -9.968120669533551
      ],
      [
        "ismo",
        -9.968220734921667
      ],
      [
        "▁ridurre",
        -9.96839894668329
      ],
      [
        "▁storie",
        -9.968484048857883
      ],
      [
        "▁notizia",
        -9.96851540054186
      ],
      [
        "▁ama",
        -9.968534968098744
      ],
      [
        "▁norma",
        -9.969535561077029
      ],
      [
        "▁cibo",
        -9.96958038102209
      ],
      [
        "▁carlo",
        -9.970764202486524
      ],
      [
        "▁lotta",
        -9.970948436884584
      ],
      [
        "▁procedura",
        -9.970965054370824
      ],
      [
        "▁cre",
        -9.975277393967009
      ],
      [
        "▁temperatura",
        -9.97528739563172
      ],
      [
        "▁volume",
        -9.975912631113756
      ],
      [
        "pre",
        -9.976408837966362
      ],
      [
        "▁punta",
        -9.97678464339926
      ],
      [
        "▁dichiarato",
        -9.976988504378722
      ],
      [
        "ist",
        -9.977256316663505
      ],
      [
        "▁spesa",
        -9.978003930089278
      ],
      [
        "▁modifica",
        -9.97805888719294
      ],
      [
        "▁accesso",
        -9.978454209051918
      ],
      [
        "zia",
        -9.978547252645374
      ],
      [
        "▁commerciale",
        -9.978586833370622
      ],
      [
        "▁download",
        -9.979818590329051
      ],
      [
        "▁vantaggio",
        -9.979948422013177
      ],
      [
        "▁esperienze",
        -9.980308952065256
      ],
      [
        "▁fondazione",
        -9.981262470126069
      ],
      [
        "▁gestire",
        -9.981329957560828
      ],
      [
        "▁chiesto",
        -9.981932659889688
      ],
      [
        "▁relativi",
        -9.98257343594312
      ],
      [
        "▁bilancio",
        -9.982650320588917
      ],
      [
        "▁cal",
        -9.982659113219146
      ],
      [
        "ure",
        -9.98335398265904
      ],
      [
        "▁mille",
        -9.983566374143404
      ],
      [
        "▁lasciare",
        -9.983914491742537
      ],
      [
        "▁trading",
        -9.98427951316675
      ],
      [
        "▁potuto",
        -9.984403884960368
      ],
      [
        "▁quadro",
        -9.984740897741654
      ],
      [
        "▁viaggi",
        -9.984962169193174
      ],
      [
        "▁associazioni",
        -9.985497601538244
      ],
      [
        "▁gusto",
        -9.985765836829165
      ],
      [
        "▁moto",
        -9.987195719731004
      ],
      [
        "zzi",
        -9.988403144629252
      ],
      [
        "for",
        -9.988740913755596
      ],
      [
        "▁terza",
        -9.988923503373991
      ],
      [
        "▁rischi",
        -9.9900470772154
      ],
      [
        "▁fede",
        -9.990630293021283
      ],
      [
        "gio",
        -9.991355084186266
      ],
      [
        "rino",
        -9.991747133305076
      ],
      [
        "▁essi",
        -9.993309405989743
      ],
      [
        "▁stesse",
        -9.99366327332686
      ],
      [
        "▁aumentare",
        -9.994045734722848
      ],
      [
        "▁inferiore",
        -9.994341075168432
      ],
      [
        "▁concorso",
        -9.995138615261952
      ],
      [
        "▁costante",
        -9.996128605630329
      ],
      [
        "▁perso",
        -9.99684914893722
      ],
      [
        "▁operazioni",
        -9.996850282433163
      ],
      [
        "▁tor",
        -9.99868350867979
      ],
      [
        "nel",
        -9.999204226935058
      ],
      [
        "▁iniziative",
        -9.999356806261028
      ],
      [
        "uk",
        -9.999728564491004
      ],
      [
        "pri",
        -10.000197929681333
      ],
      [
        "▁avevo",
        -10.000262439910276
      ],
      [
        "▁bon",
        -10.000402067844307
      ],
      [
        "▁francese",
        -10.00062319709552
      ],
      [
        "▁gamma",
        -10.00098833063145
      ],
      [
        "▁temi",
        -10.001013447451973
      ],
      [
        "▁nato",
        -10.00230147905872
      ],
      [
        "▁chiedere",
        -10.002460663595071
      ],
      [
        "ove",
        -10.003046359948277
      ],
      [
        "bit",
        -10.003179167152712
      ],
      [
        "▁privato",
        -10.00319842447625
      ],
      [
        "▁mini",
        -10.00320273003093
      ],
      [
        "▁marchio",
        -10.003805149586494
      ],
      [
        "▁riduzione",
        -10.004218280338588
      ],
      [
        "cco",
        -10.004330464210328
      ],
      [
        "▁profilo",
        -10.005919467964324
      ],
      [
        "▁voglio",
        -10.00620272970928
      ],
      [
        "▁marketing",
        -10.00668714463789
      ],
      [
        "▁finanziamento",
        -10.007689296241136
      ],
      [
        "▁iniziare",
        -10.00798227409218
      ],
      [
        "▁tecnici",
        -10.008069794119905
      ],
      [
        "▁attesa",
        -10.008117856888596
      ],
      [
        "▁componenti",
        -10.008571476308672
      ],
      [
        "tive",
        -10.008706953218354
      ],
      [
        "▁corsa",
        -10.0089549612281
      ],
      [
        "▁motore",
        -10.009016727123893
      ],
      [
        "▁simile",
        -10.009206239153654
      ],
      [
        "▁usato",
        -10.009288350533872
      ],
      [
        "zzo",
        -10.009530804155384
      ],
      [
        "▁ordine",
        -10.009555335341185
      ],
      [
        "▁aiutare",
        -10.010288302886687
      ],
      [
        "▁fondi",
        -10.010484354248351
      ],
      [
        "▁vogliamo",
        -10.01192713418527
      ],
      [
        "▁strade",
        -10.012338148228274
      ],
      [
        "▁commercio",
        -10.012446491389698
      ],
      [
        "▁ver",
        -10.012536096355362
      ],
      [
        "·",
        -10.0132706021887
      ],
      [
        "▁ricordo",
        -10.0135238760295
      ],
      [
        "▁cam",
        -10.014179063229763
      ],
      [
        "▁vostri",
        -10.014507964632966
      ],
      [
        "▁scopri",
        -10.015031813709191
      ],
      [
        "▁mediante",
        -10.01519392654097
      ],
      [
        "▁carattere",
        -10.016124484654144
      ],
      [
        "▁aperta",
        -10.016804981073898
      ],
      [
        "▁benessere",
        -10.016929094618233
      ],
      [
        "▁analisi",
        -10.01720824865304
      ],
      [
        "▁guarda",
        -10.019057026910115
      ],
      [
        "▁note",
        -10.019268784071466
      ],
      [
        "▁dispositivi",
        -10.020124106361884
      ],
      [
        "estero",
        -10.02084514964834
      ],
      [
        "▁artisti",
        -10.02150566069081
      ],
      [
        "▁nessuna",
        -10.022573946434193
      ],
      [
        "▁giusta",
        -10.023152759630486
      ],
      [
        "▁specifico",
        -10.023900435725864
      ],
      [
        "▁volontà",
        -10.024873881571134
      ],
      [
        "tati",
        -10.02547813761076
      ],
      [
        "▁prestito",
        -10.025586559652472
      ],
      [
        "▁creazione",
        -10.025750760612905
      ],
      [
        "▁competenze",
        -10.026513644451333
      ],
      [
        "▁dura",
        -10.027208807314503
      ],
      [
        "▁conti",
        -10.027886153970885
      ],
      [
        "▁semplici",
        -10.028489555149596
      ],
      [
        "▁network",
        -10.028543409242944
      ],
      [
        "▁francia",
        -10.0285928553866
      ],
      [
        "▁vacanza",
        -10.028608651602577
      ],
      [
        "▁superficie",
        -10.02901445985833
      ],
      [
        "▁disponibilità",
        -10.029857816974058
      ],
      [
        "▁accedere",
        -10.030361578349572
      ],
      [
        "tata",
        -10.030761000480563
      ],
      [
        "▁piena",
        -10.030945047417443
      ],
      [
        "▁popolo",
        -10.031034769169173
      ],
      [
        "▁situazioni",
        -10.031238052507916
      ],
      [
        "▁ricevuto",
        -10.03159719522737
      ],
      [
        "res",
        -10.032098292253885
      ],
      [
        "▁cast",
        -10.032503258677052
      ],
      [
        "▁pagare",
        -10.033136394453203
      ],
      [
        "▁soggetto",
        -10.033295097728834
      ],
      [
        "▁lontano",
        -10.03491054058469
      ],
      [
        "▁possano",
        -10.035579450699704
      ],
      [
        "▁denaro",
        -10.035622429308034
      ],
      [
        "▁dubbio",
        -10.036391708443425
      ],
      [
        "▁mon",
        -10.037020915919246
      ],
      [
        "▁android",
        -10.037046498888271
      ],
      [
        "▁ambiente",
        -10.037423105812843
      ],
      [
        "rata",
        -10.038367134235576
      ],
      [
        "▁fisica",
        -10.039158646438892
      ],
      [
        "ance",
        -10.03924186781802
      ],
      [
        "▁sentire",
        -10.039433339262317
      ],
      [
        "▁potenza",
        -10.039619460105529
      ],
      [
        "cent",
        -10.039949270070723
      ],
      [
        "▁mag",
        -10.04025824679844
      ],
      [
        "▁contrario",
        -10.04113318520299
      ],
      [
        "assessore",
        -10.042603661335686
      ],
      [
        "▁selezione",
        -10.043400513291743
      ],
      [
        "▁forti",
        -10.043768688750452
      ],
      [
        "▁singolo",
        -10.044247381386748
      ],
      [
        "rate",
        -10.04517788078125
      ],
      [
        "▁privati",
        -10.045494632142209
      ],
      [
        "▁scrive",
        -10.045715382729576
      ],
      [
        "▁lunedì",
        -10.04622155294016
      ],
      [
        "analisi",
        -10.046308317742094
      ],
      [
        "▁carte",
        -10.04638164113618
      ],
      [
        "▁esistono",
        -10.046392610464624
      ],
      [
        "▁documenti",
        -10.04694004805496
      ],
      [
        "▁pensa",
        -10.04721495014741
      ],
      [
        "▁tecnologie",
        -10.048288907320956
      ],
      [
        "par",
        -10.048308922912229
      ],
      [
        "uto",
        -10.048685815720486
      ],
      [
        "▁dipendenti",
        -10.049784750259688
      ],
      [
        "▁medici",
        -10.050192715749544
      ],
      [
        "▁regola",
        -10.050243877364558
      ],
      [
        "▁normale",
        -10.050743328880912
      ],
      [
        "▁bal",
        -10.051552387974615
      ],
      [
        "▁multi",
        -10.05252050687278
      ],
      [
        "atura",
        -10.052663812821985
      ],
      [
        "▁fan",
        -10.052994908515693
      ],
      [
        "▁aspetto",
        -10.053314978826814
      ],
      [
        "▁prossima",
        -10.053724490624267
      ],
      [
        "▁ciao",
        -10.054521892519649
      ],
      [
        "▁istituzioni",
        -10.054719858991884
      ],
      [
        "▁scelte",
        -10.054898974034028
      ],
      [
        "ring",
        -10.056180005622576
      ],
      [
        "▁this",
        -10.056494916706075
      ],
      [
        "▁potrai",
        -10.056615401742285
      ],
      [
        "▁aggiungere",
        -10.056852181675987
      ],
      [
        "▁esclusivamente",
        -10.058350146011874
      ],
      [
        "▁continuare",
        -10.058566933942911
      ],
      [
        "▁notizie",
        -10.060205782941477
      ],
      [
        "▁ciclo",
        -10.06064784023862
      ],
      [
        "▁volo",
        -10.060685819321815
      ],
      [
        "▁numerose",
        -10.060718179296885
      ],
      [
        "fon",
        -10.061724216200435
      ],
      [
        "▁pensato",
        -10.06226101540522
      ],
      [
        "tur",
        -10.06227586218552
      ],
      [
        "▁membri",
        -10.06248814656637
      ],
      [
        "▁recupero",
        -10.063119404641617
      ],
      [
        "▁vogliono",
        -10.063172655125577
      ],
      [
        "bb",
        -10.064149726608774
      ],
      [
        "atore",
        -10.064942009104238
      ],
      [
        "▁penso",
        -10.065046996577983
      ],
      [
        "▁umano",
        -10.066302991272002
      ],
      [
        "▁live",
        -10.06671034024209
      ],
      [
        "▁massa",
        -10.066750952908544
      ],
      [
        "qua",
        -10.067875815707202
      ],
      [
        "▁adatta",
        -10.06831258237664
      ],
      [
        "▁vento",
        -10.069085189929725
      ],
      [
        "▁carica",
        -10.069225934797194
      ],
      [
        "▁immediatamente",
        -10.069814370061051
      ],
      [
        "▁crema",
        -10.06984052188258
      ],
      [
        "abili",
        -10.069966315337933
      ],
      [
        "▁paziente",
        -10.070589821338052
      ],
      [
        "amp",
        -10.071452448721812
      ],
      [
        "▁azienda",
        -10.072286557496833
      ],
      [
        "ssero",
        -10.07296248017298
      ],
      [
        "less",
        -10.07385289408558
      ],
      [
        "▁patrimonio",
        -10.073861982592495
      ],
      [
        "▁chiusura",
        -10.074846306735452
      ],
      [
        "ung",
        -10.076095369955922
      ],
      [
        "▁belle",
        -10.076153435358275
      ],
      [
        "▁utilizzati",
        -10.076170850764672
      ],
      [
        "oggi",
        -10.076445804208486
      ],
      [
        "cata",
        -10.077433837394018
      ],
      [
        "▁aggiunto",
        -10.077636422348792
      ],
      [
        "▁modi",
        -10.078866142077011
      ],
      [
        "arco",
        -10.079215528894157
      ],
      [
        "▁caffè",
        -10.079882104336884
      ],
      [
        "▁interessi",
        -10.079926062977078
      ],
      [
        "▁cielo",
        -10.080389732879556
      ],
      [
        "▁bere",
        -10.080456114148388
      ],
      [
        "▁comp",
        -10.080928757568753
      ],
      [
        "▁norme",
        -10.081153383644288
      ],
      [
        "▁aprire",
        -10.081716616619763
      ],
      [
        "▁limite",
        -10.081769644432812
      ],
      [
        "ting",
        -10.08211791122463
      ],
      [
        "▁dimensione",
        -10.082394225353973
      ],
      [
        "han",
        -10.082861620161776
      ],
      [
        "▁opportunità",
        -10.082912853950525
      ],
      [
        "▁fattori",
        -10.083371998163091
      ],
      [
        "▁quanti",
        -10.083742829089529
      ],
      [
        "▁valle",
        -10.08379527780036
      ],
      [
        "▁consumo",
        -10.084553247721486
      ],
      [
        "▁protagonisti",
        -10.084876573194778
      ],
      [
        "▁perfetta",
        -10.08531679866887
      ],
      [
        "▁sant",
        -10.086028583390805
      ],
      [
        "▁naturalmente",
        -10.08743437064567
      ],
      [
        "▁processi",
        -10.088007960574403
      ],
      [
        "▁germania",
        -10.088232486639916
      ],
      [
        "tina",
        -10.089417231939706
      ],
      [
        "▁visitare",
        -10.09081516624317
      ],
      [
        "▁evento",
        -10.093396388194352
      ],
      [
        "▁ristorante",
        -10.094898978628937
      ],
      [
        "▁utilizza",
        -10.095161752634718
      ],
      [
        "del",
        -10.095393386012676
      ],
      [
        "▁scala",
        -10.095688424096132
      ],
      [
        "▁marito",
        -10.09571832749866
      ],
      [
        "▁applicazioni",
        -10.096239919429223
      ],
      [
        "′",
        -10.096976771022462
      ],
      [
        "▁collezione",
        -10.097154361679744
      ],
      [
        "uno",
        -10.097323110783766
      ],
      [
        "▁quell",
        -10.09733266470296
      ],
      [
        "otto",
        -10.0978968979677
      ],
      [
        "▁tavolo",
        -10.098197602931927
      ],
      [
        "▁campi",
        -10.099179534780378
      ],
      [
        "▁colazione",
        -10.100039311058165
      ],
      [
        "▁relative",
        -10.100840094081835
      ],
      [
        "▁certamente",
        -10.100859045990148
      ],
      [
        "car",
        -10.100871529594505
      ],
      [
        "▁scrivere",
        -10.101142632196204
      ],
      [
        "▁successivamente",
        -10.10154335713582
      ],
      [
        "▁bassa",
        -10.101573653291885
      ],
      [
        "▁occupa",
        -10.101722159997818
      ],
      [
        "▁vecchio",
        -10.1017328741045
      ],
      [
        "▁afferma",
        -10.102245756971229
      ],
      [
        "▁reso",
        -10.102324084775644
      ],
      [
        "▁umani",
        -10.102497620389668
      ],
      [
        "▁sub",
        -10.102926874044158
      ],
      [
        "▁qual",
        -10.103477549557866
      ],
      [
        "▁forum",
        -10.104098422848692
      ],
      [
        "▁chiamato",
        -10.105779025667069
      ],
      [
        "mancanza",
        -10.108283718385868
      ],
      [
        "stri",
        -10.109095856567938
      ],
      [
        "san",
        -10.109143568475195
      ],
      [
        "gua",
        -10.110134322048616
      ],
      [
        "▁rispondere",
        -10.11050965060608
      ],
      [
        "▁email",
        -10.111306705136696
      ],
      [
        "▁zero",
        -10.111528921676808
      ],
      [
        "▁attiva",
        -10.11226331275898
      ],
      [
        "▁culturali",
        -10.112378853066062
      ],
      [
        "▁autori",
        -10.11251311966125
      ],
      [
        "▁permesso",
        -10.114582789842196
      ],
      [
        "▁crea",
        -10.115562864236532
      ],
      [
        "▁star",
        -10.116412966929314
      ],
      [
        "•",
        -10.11643085824374
      ],
      [
        "▁limiti",
        -10.116439763584264
      ],
      [
        "▁partecipanti",
        -10.117280049501128
      ],
      [
        "▁cambia",
        -10.11784291716647
      ],
      [
        "▁costruire",
        -10.118323153823203
      ],
      [
        "sono",
        -10.118823548302723
      ],
      [
        "▁impegno",
        -10.118872377761631
      ],
      [
        "▁sintomi",
        -10.119182794228577
      ],
      [
        "▁carriera",
        -10.119984402177815
      ],
      [
        "▁comporta",
        -10.120058221173863
      ],
      [
        "▁orari",
        -10.12058638176068
      ],
      [
        "▁classico",
        -10.121915000322227
      ],
      [
        "▁dollari",
        -10.122179103127774
      ],
      [
        "▁speranza",
        -10.122207532226671
      ],
      [
        "▁titoli",
        -10.12251150115924
      ],
      [
        "▁giustizia",
        -10.12338324787819
      ],
      [
        "▁considerazione",
        -10.123583414395249
      ],
      [
        "olio",
        -10.12563125418357
      ],
      [
        "▁ampio",
        -10.126017164640093
      ],
      [
        "▁successivo",
        -10.126270900582098
      ],
      [
        "▁malattie",
        -10.126900515671505
      ],
      [
        "▁poli",
        -10.127067522766056
      ],
      [
        "▁sicilia",
        -10.1275362254843
      ],
      [
        "▁rifiuti",
        -10.1285638135177
      ],
      [
        "ioni",
        -10.128746792408046
      ],
      [
        "▁schermo",
        -10.12929680143758
      ],
      [
        "▁moglie",
        -10.130423055812807
      ],
      [
        "alto",
        -10.13076787921215
      ],
      [
        "operazione",
        -10.130772521755782
      ],
      [
        "▁spi",
        -10.131788337119962
      ],
      [
        "▁idea",
        -10.134762892653136
      ],
      [
        "▁diversa",
        -10.134918911370097
      ],
      [
        "▁bru",
        -10.135045011587504
      ],
      [
        "▁lavora",
        -10.135181072883702
      ],
      [
        "bra",
        -10.135651489555803
      ],
      [
        "provenienti",
        -10.135936758005904
      ],
      [
        "acca",
        -10.13595328125638
      ],
      [
        "▁reti",
        -10.136714101748398
      ],
      [
        "▁manutenzione",
        -10.13734662945438
      ],
      [
        "▁was",
        -10.137533241602762
      ],
      [
        "ingresso",
        -10.13831575092098
      ],
      [
        "▁musicale",
        -10.138474514563192
      ],
      [
        "▁ottenuto",
        -10.138711943803209
      ],
      [
        "▁chat",
        -10.139215520231092
      ],
      [
        "▁cambiamento",
        -10.139290958881755
      ],
      [
        "▁contiene",
        -10.13984644927365
      ],
      [
        "▁capace",
        -10.140117597076056
      ],
      [
        "▁manca",
        -10.14014217101658
      ],
      [
        "ccio",
        -10.140540041414583
      ],
      [
        "▁venti",
        -10.141227581539132
      ],
      [
        "arrivo",
        -10.14138140209841
      ],
      [
        "▁terreno",
        -10.141969178881936
      ],
      [
        "▁alcuna",
        -10.142025257599892
      ],
      [
        "▁poteva",
        -10.142154837720248
      ],
      [
        "▁dolce",
        -10.142464855495382
      ],
      [
        "▁sette",
        -10.143159133921722
      ],
      [
        "▁maggioranza",
        -10.14347008354535
      ],
      [
        "▁regolamento",
        -10.143539495923658
      ],
      [
        "▁nomi",
        -10.143823469552911
      ],
      [
        "poli",
        -10.143890097643034
      ],
      [
        "▁tradizionale",
        -10.14409019893873
      ],
      [
        "▁potrete",
        -10.145142430005675
      ],
      [
        "▁signore",
        -10.14527999395692
      ],
      [
        "▁medicina",
        -10.145299518472685
      ],
      [
        "nate",
        -10.14543468745321
      ],
      [
        "▁principio",
        -10.145820886748124
      ],
      [
        "▁avendo",
        -10.14615210675776
      ],
      [
        "▁prossimi",
        -10.147008324797
      ],
      [
        "tiche",
        -10.148281757698683
      ],
      [
        "rati",
        -10.14865678852084
      ],
      [
        "▁apple",
        -10.149041865591856
      ],
      [
        "rina",
        -10.149449417576449
      ],
      [
        "tar",
        -10.149936034974562
      ],
      [
        "bilità",
        -10.151647023648632
      ],
      [
        "▁stra",
        -10.152022039288951
      ],
      [
        "▁semi",
        -10.152780605968696
      ],
      [
        "▁sogno",
        -10.1529408732009
      ],
      [
        "▁mamma",
        -10.153201609859105
      ],
      [
        "▁bordo",
        -10.15370729086405
      ],
      [
        "▁sullo",
        -10.154090913500172
      ],
      [
        "▁ognuno",
        -10.154129708723389
      ],
      [
        "▁capi",
        -10.155337138933971
      ],
      [
        "care",
        -10.156018707961316
      ],
      [
        "▁qualunque",
        -10.156056482654762
      ],
      [
        "nati",
        -10.156082722004443
      ],
      [
        "▁vorrei",
        -10.156393026154822
      ],
      [
        "▁palermo",
        -10.156420480583687
      ],
      [
        "▁her",
        -10.15647173562086
      ],
      [
        "▁ja",
        -10.157234862070332
      ],
      [
        "▁piani",
        -10.15776113844896
      ],
      [
        "▁appunto",
        -10.158144303962812
      ],
      [
        "indi",
        -10.158491832612588
      ],
      [
        "▁aggiunge",
        -10.15908986399582
      ],
      [
        "▁presa",
        -10.160250712383052
      ],
      [
        "▁ambientale",
        -10.160345307006414
      ],
      [
        "▁guardare",
        -10.161060542766435
      ],
      [
        "▁gratuita",
        -10.161215189065524
      ],
      [
        "▁chiama",
        -10.161873102461632
      ],
      [
        "▁dover",
        -10.162019881093537
      ],
      [
        "rato",
        -10.162154116790598
      ],
      [
        "▁relazioni",
        -10.162682138575086
      ],
      [
        "▁paio",
        -10.162951472879826
      ],
      [
        "▁band",
        -10.163307883439666
      ],
      [
        "ago",
        -10.163563364359163
      ],
      [
        "migliaia",
        -10.16487975222673
      ],
      [
        "▁formula",
        -10.165543124653974
      ],
      [
        "▁cer",
        -10.165932695285756
      ],
      [
        "industria",
        -10.166013457076613
      ],
      [
        "▁specifica",
        -10.16650245548714
      ],
      [
        "▁partite",
        -10.167600332587496
      ],
      [
        "▁considerato",
        -10.167873368319126
      ],
      [
        "▁pena",
        -10.168295984741672
      ],
      [
        "▁voto",
        -10.168619841563803
      ],
      [
        "▁premi",
        -10.168657028596495
      ],
      [
        "▁pen",
        -10.168758994361356
      ],
      [
        "▁intende",
        -10.168797778214278
      ],
      [
        "▁legale",
        -10.170536679443316
      ],
      [
        "▁grave",
        -10.17073642812473
      ],
      [
        "▁europei",
        -10.171427897618496
      ],
      [
        "▁fenomeno",
        -10.17145396433853
      ],
      [
        "▁funzionalità",
        -10.171556116359906
      ],
      [
        "▁area",
        -10.172539531548912
      ],
      [
        "▁simili",
        -10.172787599943828
      ],
      [
        "▁spedizione",
        -10.173704847486691
      ],
      [
        "▁necessari",
        -10.17377535631264
      ],
      [
        "stiche",
        -10.173810066809622
      ],
      [
        "▁giudizio",
        -10.174157717315174
      ],
      [
        "gg",
        -10.174416801695926
      ],
      [
        "▁caldo",
        -10.17475942526351
      ],
      [
        "▁arrivato",
        -10.174822577828984
      ],
      [
        "▁free",
        -10.174928904968818
      ],
      [
        "▁bianca",
        -10.17533754399419
      ],
      [
        "▁sconto",
        -10.175749581864066
      ],
      [
        "arma",
        -10.175794703423405
      ],
      [
        "edizione",
        -10.175866314318618
      ],
      [
        "▁ponte",
        -10.176766530341204
      ],
      [
        "▁principi",
        -10.176854550248764
      ],
      [
        "▁ottima",
        -10.176933633543872
      ],
      [
        "▁raggiunto",
        -10.177702491851749
      ],
      [
        "▁parlato",
        -10.17779575568802
      ],
      [
        "esistenza",
        -10.178044797279927
      ],
      [
        "▁specifiche",
        -10.178133653531022
      ],
      [
        "▁preparazione",
        -10.17878535837756
      ],
      [
        "colo",
        -10.1793981197897
      ],
      [
        "▁prevenzione",
        -10.18007811184235
      ],
      [
        "▁aiuto",
        -10.18062167309442
      ],
      [
        "▁aff",
        -10.182478402475253
      ],
      [
        "▁chiara",
        -10.18293338576586
      ],
      [
        "▁ko",
        -10.183502089745003
      ],
      [
        "▁stefano",
        -10.18435952934888
      ],
      [
        "cas",
        -10.18444248397114
      ],
      [
        "▁decide",
        -10.185117536055005
      ],
      [
        "ù",
        -10.18521097954516
      ],
      [
        "▁stanza",
        -10.185809884657148
      ],
      [
        "▁dovrebbero",
        -10.185909370590284
      ],
      [
        "▁portata",
        -10.186119595512777
      ],
      [
        "▁mario",
        -10.186967844438032
      ],
      [
        "bri",
        -10.187055673660783
      ],
      [
        "▁registrazione",
        -10.187448506036864
      ],
      [
        "mina",
        -10.187586044451274
      ],
      [
        "▁gia",
        -10.187745482117744
      ],
      [
        "▁felice",
        -10.187877991671067
      ],
      [
        "▁sarebbero",
        -10.190373339721637
      ],
      [
        "▁fortuna",
        -10.190556775250675
      ],
      [
        "▁traffico",
        -10.190765649276717
      ],
      [
        "▁sorta",
        -10.193150610744786
      ],
      [
        "▁investimenti",
        -10.193526214505734
      ],
      [
        "▁lasciato",
        -10.193750348008214
      ],
      [
        "ssimi",
        -10.194065068596672
      ],
      [
        "▁canale",
        -10.194564013573071
      ],
      [
        "uscita",
        -10.194619301332066
      ],
      [
        "▁positivo",
        -10.194800161781886
      ],
      [
        "▁vivo",
        -10.195761490481056
      ],
      [
        "energia",
        -10.197831643244983
      ],
      [
        "▁organizzato",
        -10.19833547649288
      ],
      [
        "ran",
        -10.199060653145487
      ],
      [
        "▁emozioni",
        -10.19973710494321
      ],
      [
        "▁femminile",
        -10.200052828658642
      ],
      [
        "cap",
        -10.200316078638602
      ],
      [
        "▁risolvere",
        -10.201078390842545
      ],
      [
        "▁tessuto",
        -10.20117315860362
      ],
      [
        "▁squadre",
        -10.201724761383977
      ],
      [
        "▁differenti",
        -10.202469185374069
      ],
      [
        "▁critica",
        -10.202562456522989
      ],
      [
        "cus",
        -10.202952667261124
      ],
      [
        "▁clima",
        -10.203319817207516
      ],
      [
        "▁vincere",
        -10.203378148864454
      ],
      [
        "▁spiaggia",
        -10.203735575038078
      ],
      [
        "▁esercizi",
        -10.20427952799189
      ],
      [
        "ling",
        -10.204586651424396
      ],
      [
        "▁tratto",
        -10.204833829213966
      ],
      [
        "▁chilometri",
        -10.205050489323709
      ],
      [
        "▁popolare",
        -10.20507257012864
      ],
      [
        "stru",
        -10.2063344604397
      ],
      [
        "cor",
        -10.206386746588295
      ],
      [
        "▁soci",
        -10.206933923197107
      ],
      [
        "amb",
        -10.207652747486373
      ],
      [
        "nzi",
        -10.207911666924858
      ],
      [
        "▁perfettamente",
        -10.208018746976288
      ],
      [
        "▁scheda",
        -10.208253423892264
      ],
      [
        "▁unica",
        -10.208440736564503
      ],
      [
        "▁tele",
        -10.208644211368808
      ],
      [
        "▁unità",
        -10.208645641126688
      ],
      [
        "▁quarto",
        -10.20874618111839
      ],
      [
        "▁frutto",
        -10.209016000222308
      ],
      [
        "▁treno",
        -10.20907847887966
      ],
      [
        "▁farsi",
        -10.209560589782049
      ],
      [
        "ione",
        -10.20974397211469
      ],
      [
        "▁obiettivo",
        -10.2100656045382
      ],
      [
        "▁concetto",
        -10.210514770292606
      ],
      [
        "▁strategia",
        -10.211026414501315
      ],
      [
        "▁comprare",
        -10.211755185175214
      ],
      [
        "assi",
        -10.211755335528034
      ],
      [
        "▁gambe",
        -10.21219938218272
      ],
      [
        "▁adatto",
        -10.212421110975724
      ],
      [
        "▁comitato",
        -10.21292287783216
      ],
      [
        "stre",
        -10.21292578511294
      ],
      [
        "▁giocatore",
        -10.213941090687449
      ],
      [
        "▁discussione",
        -10.21488497918197
      ],
      [
        "rag",
        -10.215001455711397
      ],
      [
        "essere",
        -10.21503137799856
      ],
      [
        "org",
        -10.215888567706862
      ],
      [
        "▁giunta",
        -10.215911724748064
      ],
      [
        "tor",
        -10.216765759832224
      ],
      [
        "▁volontari",
        -10.217658926597313
      ],
      [
        "▁dettaglio",
        -10.217936332643768
      ],
      [
        "▁nascita",
        -10.219768051329105
      ],
      [
        "arne",
        -10.219922206820147
      ],
      [
        "indirizzo",
        -10.220053039631416
      ],
      [
        "▁appare",
        -10.220431834696722
      ],
      [
        "gra",
        -10.22050385919107
      ],
      [
        "▁ricetta",
        -10.220834575064217
      ],
      [
        "▁inserire",
        -10.220943994795624
      ],
      [
        "▁pezzi",
        -10.221011232418777
      ],
      [
        "▁prevista",
        -10.222325635044134
      ],
      [
        "▁gravi",
        -10.222572172984751
      ],
      [
        "▁fonte",
        -10.223040101081695
      ],
      [
        "▁sentenza",
        -10.223206551485989
      ],
      [
        "▁titolare",
        -10.223608493283242
      ],
      [
        "mica",
        -10.223645879059122
      ],
      [
        "abilità",
        -10.22404046193922
      ],
      [
        "▁avviene",
        -10.224759260619898
      ],
      [
        "▁giu",
        -10.22548658529172
      ],
      [
        "rini",
        -10.225544162049756
      ],
      [
        "▁ragazza",
        -10.225893931907892
      ],
      [
        "▁iphone",
        -10.226022936290969
      ],
      [
        "▁th",
        -10.227047458327611
      ],
      [
        "▁benefici",
        -10.22706635019412
      ],
      [
        "▁origine",
        -10.22783043060439
      ],
      [
        "▁resistenza",
        -10.227879994047992
      ],
      [
        "▁tratti",
        -10.228096667675237
      ],
      [
        "▁ki",
        -10.22831562279504
      ],
      [
        "▁lazio",
        -10.228651063733276
      ],
      [
        "▁filo",
        -10.229110387605528
      ],
      [
        "▁www",
        -10.229431151016966
      ],
      [
        "▁conferenza",
        -10.229923678391796
      ],
      [
        "▁trovi",
        -10.23000863555446
      ],
      [
        "ron",
        -10.230185176418106
      ],
      [
        "▁gradi",
        -10.230561418372242
      ],
      [
        "▁ragazzo",
        -10.231053399504818
      ],
      [
        "▁estremamente",
        -10.23168866646315
      ],
      [
        "▁piante",
        -10.231829128720836
      ],
      [
        "▁cristo",
        -10.232457230756212
      ],
      [
        "vit",
        -10.233118902991414
      ],
      [
        "▁appuntamento",
        -10.233312544859295
      ],
      [
        "ccia",
        -10.234115624990562
      ],
      [
        "tivi",
        -10.234534406972736
      ],
      [
        "nella",
        -10.234607993444824
      ],
      [
        "▁cittadino",
        -10.234753966516797
      ],
      [
        "▁dovranno",
        -10.235126548212316
      ],
      [
        "▁turismo",
        -10.235587804343876
      ],
      [
        "▁matrimonio",
        -10.235627742424048
      ],
      [
        "▁milan",
        -10.237329592661675
      ],
      [
        "bol",
        -10.23774872190865
      ],
      [
        "▁doppio",
        -10.237822246287733
      ],
      [
        "▁presentare",
        -10.238255648010927
      ],
      [
        "▁necessaria",
        -10.23853957812278
      ],
      [
        "▁attorno",
        -10.238648259968729
      ],
      [
        "▁olio",
        -10.239180210450192
      ],
      [
        "▁adulti",
        -10.239902871445432
      ],
      [
        "▁interessanti",
        -10.239934948285036
      ],
      [
        "▁romanzo",
        -10.240416528627414
      ],
      [
        "▁bor",
        -10.240418043713046
      ],
      [
        "▁generazione",
        -10.240999057073292
      ],
      [
        "▁piatto",
        -10.242095193639994
      ],
      [
        "▁distribuzione",
        -10.242473828527036
      ],
      [
        "zion",
        -10.242810765577405
      ],
      [
        "▁show",
        -10.242851885844887
      ],
      [
        "▁violenza",
        -10.242903395542044
      ],
      [
        "▁gioca",
        -10.2430698330893
      ],
      [
        "▁matteo",
        -10.243191928861773
      ],
      [
        "▁pietro",
        -10.24482666069635
      ],
      [
        "▁indicazioni",
        -10.245354377784212
      ],
      [
        "▁verificare",
        -10.245787240561516
      ],
      [
        "▁sor",
        -10.245907695894203
      ],
      [
        "▁santo",
        -10.246327257352702
      ],
      [
        "▁accanto",
        -10.246723095272907
      ],
      [
        "▁metodi",
        -10.247058700934522
      ],
      [
        "▁ricco",
        -10.247434893563137
      ],
      [
        "▁compito",
        -10.248968823153405
      ],
      [
        "▁faccio",
        -10.249875047959604
      ],
      [
        "▁settori",
        -10.250525072407584
      ],
      [
        "▁giovedì",
        -10.250548808243778
      ],
      [
        "attuale",
        -10.251116550843864
      ],
      [
        "▁crescere",
        -10.251137481777691
      ],
      [
        "▁condividere",
        -10.251928074965711
      ],
      [
        "▁sostenere",
        -10.252053717739011
      ],
      [
        "▁commenti",
        -10.252553066439306
      ],
      [
        "▁svolta",
        -10.252577961528086
      ],
      [
        "▁laboratorio",
        -10.252790554379624
      ],
      [
        "▁professionali",
        -10.253552437136689
      ],
      [
        "▁viso",
        -10.254127476592275
      ],
      [
        "trici",
        -10.254313230754567
      ],
      [
        "▁roberto",
        -10.254430451678896
      ],
      [
        "▁scarica",
        -10.2544725369698
      ],
      [
        "▁meta",
        -10.254571937107832
      ],
      [
        "▁comprende",
        -10.254906224933308
      ],
      [
        "mit",
        -10.254961285435646
      ],
      [
        "▁binarie",
        -10.254975103903764
      ],
      [
        "▁extra",
        -10.255017167766214
      ],
      [
        "▁farà",
        -10.25532294951988
      ],
      [
        "▁latte",
        -10.255347876874277
      ],
      [
        "▁terapia",
        -10.256365128202068
      ],
      [
        "▁sca",
        -10.257331566635948
      ],
      [
        "▁umana",
        -10.257452905737466
      ],
      [
        "▁tasso",
        -10.25779228213634
      ],
      [
        "▁somma",
        -10.257941468597837
      ],
      [
        "obbligo",
        -10.258550338954464
      ],
      [
        "impegno",
        -10.258575423271328
      ],
      [
        "ast",
        -10.259433025573912
      ],
      [
        "▁certa",
        -10.259865175324064
      ],
      [
        "▁amico",
        -10.260217265451454
      ],
      [
        "▁york",
        -10.260803743826507
      ],
      [
        "▁collega",
        -10.261055393574312
      ],
      [
        "▁conosce",
        -10.261612476106052
      ],
      [
        "▁bus",
        -10.262629862261798
      ],
      [
        "▁utilizzo",
        -10.262920991852296
      ],
      [
        "▁riuscire",
        -10.26363350856749
      ],
      [
        "▁appartamento",
        -10.26452932575763
      ],
      [
        "▁località",
        -10.26470307081662
      ],
      [
        "cina",
        -10.266496477852844
      ],
      [
        "azi",
        -10.266773013029344
      ],
      [
        "▁percorsi",
        -10.26716745730732
      ],
      [
        "▁lago",
        -10.267371966898796
      ],
      [
        "▁messaggi",
        -10.268004573796992
      ],
      [
        "▁fotografia",
        -10.268151570129596
      ],
      [
        "▁troviamo",
        -10.268571306792357
      ],
      [
        "▁offerta",
        -10.268994427848847
      ],
      [
        "▁conclude",
        -10.269408479169142
      ],
      [
        "▁voler",
        -10.271692872663271
      ],
      [
        "▁castello",
        -10.272280442167713
      ],
      [
        "▁marche",
        -10.272828447086184
      ],
      [
        "▁vediamo",
        -10.273081869711044
      ],
      [
        "▁my",
        -10.273128871538365
      ],
      [
        "fra",
        -10.27359144053454
      ],
      [
        "ossi",
        -10.275318024493645
      ],
      [
        "effetto",
        -10.27590628602188
      ],
      [
        "▁valutare",
        -10.276612150361403
      ],
      [
        "▁interna",
        -10.27713898454934
      ],
      [
        "▁richiesto",
        -10.27961834673486
      ],
      [
        "▁por",
        -10.279893920919305
      ],
      [
        "▁luci",
        -10.280011765455594
      ],
      [
        "cato",
        -10.281319860928102
      ],
      [
        "bor",
        -10.28165550188394
      ],
      [
        "▁disciplina",
        -10.282122021016972
      ],
      [
        "jo",
        -10.282143045646585
      ],
      [
        "dire",
        -10.282199168773891
      ],
      [
        "▁toscana",
        -10.282377026878413
      ],
      [
        "▁red",
        -10.28245050113603
      ],
      [
        "emp",
        -10.2830333623192
      ],
      [
        "▁corrente",
        -10.283421782253235
      ],
      [
        "▁bonus",
        -10.283536985021556
      ],
      [
        "▁globale",
        -10.28423239011193
      ],
      [
        "▁dispone",
        -10.284242760160078
      ],
      [
        "anna",
        -10.28444110029112
      ],
      [
        "▁buono",
        -10.284553224880367
      ],
      [
        "▁piscina",
        -10.284642173260606
      ],
      [
        "▁ricordare",
        -10.284875766351464
      ],
      [
        "▁conta",
        -10.285499012734372
      ],
      [
        "sho",
        -10.28566351468532
      ],
      [
        "▁indicato",
        -10.286699137749537
      ],
      [
        "▁ambienti",
        -10.28698745528536
      ],
      [
        "interesse",
        -10.288221231823634
      ],
      [
        "▁spiegato",
        -10.288526624949853
      ],
      [
        "▁economici",
        -10.289740270189174
      ],
      [
        "▁relativa",
        -10.289767246250022
      ],
      [
        "▁capito",
        -10.289767520684125
      ],
      [
        "▁entra",
        -10.290299567029622
      ],
      [
        "▁uscire",
        -10.290491702261674
      ],
      [
        "▁mila",
        -10.29051397801206
      ],
      [
        "ong",
        -10.290667093847109
      ],
      [
        "▁primavera",
        -10.291366045782874
      ],
      [
        "▁scoperta",
        -10.291418491360576
      ],
      [
        "▁riconoscimento",
        -10.291775403608396
      ],
      [
        "▁giudice",
        -10.29199865836629
      ],
      [
        "▁cookie",
        -10.292126510730386
      ],
      [
        "▁decisamente",
        -10.292246119086029
      ],
      [
        "▁cause",
        -10.292335280647071
      ],
      [
        "▁vacanze",
        -10.293601171196006
      ],
      [
        "▁quartiere",
        -10.293796143979518
      ],
      [
        "▁tenuto",
        -10.294515785484275
      ],
      [
        "▁rossi",
        -10.294612273893083
      ],
      [
        "▁pasta",
        -10.2956154127679
      ],
      [
        "▁controllare",
        -10.296171865325796
      ],
      [
        "otta",
        -10.29642082002186
      ],
      [
        "▁vicenda",
        -10.297388452059678
      ],
      [
        "▁bocca",
        -10.297436597708298
      ],
      [
        "$",
        -10.298185423464457
      ],
      [
        "▁proposito",
        -10.298940224241033
      ],
      [
        "nese",
        -10.299053728371511
      ],
      [
        "▁uffici",
        -10.299322203042092
      ],
      [
        "▁risponde",
        -10.299852235058925
      ],
      [
        "▁alessandro",
        -10.30007790133084
      ],
      [
        "▁conte",
        -10.300130017549932
      ],
      [
        "aeroporto",
        -10.300596368295416
      ],
      [
        "▁fondamentali",
        -10.300741934474344
      ],
      [
        "▁mercati",
        -10.301748168132926
      ],
      [
        "▁pranzo",
        -10.302524867484562
      ],
      [
        "▁performance",
        -10.303153948013408
      ],
      [
        "almente",
        -10.3031716830615
      ],
      [
        "▁ragioni",
        -10.30326205982603
      ],
      [
        "stici",
        -10.30350128336511
      ],
      [
        "▁mono",
        -10.303732717504236
      ],
      [
        "▁bri",
        -10.303879388610124
      ],
      [
        "anima",
        -10.30407775624986
      ],
      [
        "▁fiscale",
        -10.304196813111174
      ],
      [
        "scono",
        -10.304327069315336
      ],
      [
        "▁secondi",
        -10.304766656319469
      ],
      [
        "▁personaggio",
        -10.305087164397174
      ],
      [
        "▁luigi",
        -10.305125767270363
      ],
      [
        "way",
        -10.30553552636309
      ],
      [
        "▁elemento",
        -10.306032192987642
      ],
      [
        "▁tribunale",
        -10.306371379935502
      ],
      [
        "by",
        -10.306517334180432
      ],
      [
        "▁previsti",
        -10.307005300569976
      ],
      [
        "▁imparare",
        -10.30712648031265
      ],
      [
        "▁fonti",
        -10.307974487073777
      ],
      [
        "rom",
        -10.308636658503673
      ],
      [
        "▁colpo",
        -10.309467891489334
      ],
      [
        "ave",
        -10.309506543704815
      ],
      [
        "▁mangiare",
        -10.309714163034078
      ],
      [
        "▁sino",
        -10.309748310833369
      ],
      [
        "▁comprendere",
        -10.310011487646722
      ],
      [
        "▁pulizia",
        -10.3103652448144
      ],
      [
        "á",
        -10.310606520113287
      ],
      [
        "▁from",
        -10.310749706159903
      ],
      [
        "—",
        -10.31082554491269
      ],
      [
        "▁intanto",
        -10.31102453203758
      ],
      [
        "▁fisico",
        -10.311226350650829
      ],
      [
        "▁parigi",
        -10.311711101235876
      ],
      [
        "▁accade",
        -10.312168654988891
      ],
      [
        "▁chiuso",
        -10.312246246075096
      ],
      [
        "▁attuale",
        -10.312420975048118
      ],
      [
        "▁sufficiente",
        -10.31246059945845
      ],
      [
        "▁cena",
        -10.312543131957948
      ],
      [
        "essi",
        -10.312990793446865
      ],
      [
        "▁aspetta",
        -10.313974885321498
      ],
      [
        "▁buoni",
        -10.314150733368487
      ],
      [
        "▁acquisto",
        -10.314665066546294
      ],
      [
        "▁ricorso",
        -10.315323663790648
      ],
      [
        "cre",
        -10.31545298251564
      ],
      [
        "▁pietra",
        -10.316594490439458
      ],
      [
        "▁modulo",
        -10.316789720898344
      ],
      [
        "▁esattamente",
        -10.316846578235673
      ],
      [
        "▁interni",
        -10.316924712921846
      ],
      [
        "▁altrimenti",
        -10.317305108106115
      ],
      [
        "▁regno",
        -10.317577044642372
      ],
      [
        "▁cina",
        -10.317927370136069
      ],
      [
        "▁torre",
        -10.318098376065906
      ],
      [
        "late",
        -10.319186737666628
      ],
      [
        "▁prof",
        -10.3208278181936
      ],
      [
        "▁chiunque",
        -10.320840875668246
      ],
      [
        "vert",
        -10.32204306157929
      ],
      [
        "▁riforma",
        -10.322474673424676
      ],
      [
        "importanza",
        -10.322700267224612
      ],
      [
        "▁spalle",
        -10.323811889794271
      ],
      [
        "▁apre",
        -10.324276353311625
      ],
      [
        "▁prese",
        -10.324537486355869
      ],
      [
        "▁caro",
        -10.325746542432476
      ],
      [
        "iere",
        -10.32576700900233
      ],
      [
        "▁discorso",
        -10.327044390659866
      ],
      [
        "▁provato",
        -10.32758274944513
      ],
      [
        "▁venne",
        -10.327588845130103
      ],
      [
        "fica",
        -10.328049183125495
      ],
      [
        "▁definizione",
        -10.32806498608851
      ],
      [
        "▁sappiamo",
        -10.328134302209916
      ],
      [
        "van",
        -10.328595720519193
      ],
      [
        "pati",
        -10.32889087213016
      ],
      [
        "▁esse",
        -10.32926192666321
      ],
      [
        "▁saper",
        -10.329493215783003
      ],
      [
        "aspetto",
        -10.330402797851349
      ],
      [
        "▁spar",
        -10.330865534311911
      ],
      [
        "▁frutta",
        -10.332403394208388
      ],
      [
        "▁normativa",
        -10.33269946643853
      ],
      [
        "▁batteria",
        -10.33281518308521
      ],
      [
        "▁funzionamento",
        -10.332945081338572
      ],
      [
        "▁vetro",
        -10.33329532508341
      ],
      [
        "guard",
        -10.333524380904317
      ],
      [
        "▁pubbliche",
        -10.334408257052642
      ],
      [
        "▁server",
        -10.33475117107746
      ],
      [
        "pot",
        -10.334849044951376
      ],
      [
        "▁gel",
        -10.335118547193687
      ],
      [
        "▁progettazione",
        -10.335150711678146
      ],
      [
        "ley",
        -10.335289668221908
      ],
      [
        "ardi",
        -10.335408767534632
      ],
      [
        "▁politici",
        -10.3355003382959
      ],
      [
        "▁sguardo",
        -10.337130022904352
      ],
      [
        "▁abitanti",
        -10.337585389713686
      ],
      [
        "▁borsa",
        -10.338423879776512
      ],
      [
        "▁spero",
        -10.33888866758406
      ],
      [
        "▁autorità",
        -10.339074704680632
      ],
      [
        "▁connessione",
        -10.3395179886392
      ],
      [
        "▁furono",
        -10.340601752742636
      ],
      [
        "▁marina",
        -10.340683518235558
      ],
      [
        "sul",
        -10.34078406673648
      ],
      [
        "▁forno",
        -10.341007275179988
      ],
      [
        "eppure",
        -10.341342030969784
      ],
      [
        "▁big",
        -10.341695538238117
      ],
      [
        "▁impossibile",
        -10.34203405394536
      ],
      [
        "▁ingredienti",
        -10.342182274898793
      ],
      [
        "▁gioia",
        -10.342216824447007
      ],
      [
        "▁salva",
        -10.343147788572669
      ],
      [
        "▁vini",
        -10.343432306970104
      ],
      [
        "apertura",
        -10.343483823605016
      ],
      [
        "▁staff",
        -10.343778852838936
      ],
      [
        "mond",
        -10.34427701877621
      ],
      [
        "▁gr",
        -10.344681721325696
      ],
      [
        "vere",
        -10.345296062898507
      ],
      [
        "▁industriale",
        -10.345342422045722
      ],
      [
        "▁parcheggio",
        -10.345518784411889
      ],
      [
        "▁rimanere",
        -10.345904299429863
      ],
      [
        "▁minima",
        -10.346566755211786
      ],
      [
        "▁testi",
        -10.347201999305302
      ],
      [
        "atmosfera",
        -10.347206058989263
      ],
      [
        "▁praticamente",
        -10.347565581515328
      ],
      [
        "▁manager",
        -10.347837743807103
      ],
      [
        "▁fascia",
        -10.348474492846108
      ],
      [
        "▁neanche",
        -10.348966916774412
      ],
      [
        "▁min",
        -10.3493258150924
      ],
      [
        "▁taglio",
        -10.349489880229132
      ],
      [
        "artista",
        -10.350912197157562
      ],
      [
        "▁pubblicazione",
        -10.350986079144924
      ],
      [
        "vent",
        -10.351450657400832
      ],
      [
        "▁superiori",
        -10.35165719172396
      ],
      [
        "www",
        -10.353056222115192
      ],
      [
        "▁requisiti",
        -10.353064596324211
      ],
      [
        "▁segue",
        -10.353918134519304
      ],
      [
        "▁ricca",
        -10.354024126371591
      ],
      [
        "uro",
        -10.354219737071238
      ],
      [
        "▁richiedere",
        -10.354537180567116
      ],
      [
        "▁arrivo",
        -10.354540542512844
      ],
      [
        "▁tende",
        -10.354622034293936
      ],
      [
        "gol",
        -10.3552586509275
      ],
      [
        "▁ricerche",
        -10.35542074293032
      ],
      [
        "onda",
        -10.355733304262056
      ],
      [
        "▁sviluppare",
        -10.356402387546789
      ],
      [
        "▁battaglia",
        -10.357053667630296
      ],
      [
        "▁operativo",
        -10.357573531584006
      ],
      [
        "▁originali",
        -10.357663462662776
      ],
      [
        "▁carabinieri",
        -10.358126445855282
      ],
      [
        "▁generali",
        -10.358772104233912
      ],
      [
        "▁certi",
        -10.359438758019463
      ],
      [
        "▁legati",
        -10.35966156485226
      ],
      [
        "▁motori",
        -10.3600991912713
      ],
      [
        "▁vostre",
        -10.360300416277672
      ],
      [
        "nder",
        -10.360466854106424
      ],
      [
        "▁desiderio",
        -10.360742090314677
      ],
      [
        "tevi",
        -10.360753050540946
      ],
      [
        "aiuto",
        -10.361300654742026
      ],
      [
        "▁vene",
        -10.362310203144167
      ],
      [
        "▁comportamento",
        -10.36231479616429
      ],
      [
        "▁superare",
        -10.362689970651992
      ],
      [
        "▁svolge",
        -10.36336541344715
      ],
      [
        "▁alimentare",
        -10.363923931547989
      ],
      [
        "▁kg",
        -10.364879473604844
      ],
      [
        "▁cifra",
        -10.365049596908769
      ],
      [
        "▁sostanze",
        -10.36515227162983
      ],
      [
        "▁attivo",
        -10.365483044127572
      ],
      [
        "rete",
        -10.366151427602068
      ],
      [
        "▁possesso",
        -10.366899767704366
      ],
      [
        "ospedale",
        -10.367299375606208
      ],
      [
        "▁abbiano",
        -10.368093865922496
      ],
      [
        "sport",
        -10.368260168923628
      ],
      [
        "mia",
        -10.368317335777569
      ],
      [
        "▁privacy",
        -10.368340635258726
      ],
      [
        "▁banche",
        -10.368701614332638
      ],
      [
        "alta",
        -10.369105968455107
      ],
      [
        "▁categorie",
        -10.369106510324746
      ],
      [
        "▁totalmente",
        -10.36916356102843
      ],
      [
        "▁chiamata",
        -10.369903268909646
      ],
      [
        "▁sch",
        -10.369907464901464
      ],
      [
        "▁vinto",
        -10.37046692741797
      ],
      [
        "▁competenza",
        -10.370620500268885
      ],
      [
        "▁ragazze",
        -10.370827835277218
      ],
      [
        "rare",
        -10.37134053468078
      ],
      [
        "▁match",
        -10.372055168636802
      ],
      [
        "▁terzi",
        -10.372091559549151
      ],
      [
        "▁concerto",
        -10.372098166905005
      ],
      [
        "▁offrono",
        -10.37230772136175
      ],
      [
        "▁conclusione",
        -10.37250338505571
      ],
      [
        "pen",
        -10.372966659117688
      ],
      [
        "▁pane",
        -10.373118837991374
      ],
      [
        "▁pianta",
        -10.373169241490016
      ],
      [
        "assemblea",
        -10.373324989500013
      ],
      [
        "▁dimostrato",
        -10.373963627957927
      ],
      [
        "▁ospita",
        -10.373998820158665
      ],
      [
        "▁errori",
        -10.374441604943213
      ],
      [
        "ã",
        -10.374458212491442
      ],
      [
        "▁cro",
        -10.374667101046253
      ],
      [
        "▁master",
        -10.374989497622987
      ],
      [
        "▁nata",
        -10.375678456698566
      ],
      [
        "▁parlamento",
        -10.377649256606505
      ],
      [
        "▁elettronica",
        -10.377697088366018
      ],
      [
        "▁alti",
        -10.3777127891096
      ],
      [
        "▁assieme",
        -10.379420092986445
      ],
      [
        "▁promuovere",
        -10.37955001477854
      ],
      [
        "▁audio",
        -10.379600677431698
      ],
      [
        "▁significato",
        -10.379777596988442
      ],
      [
        "stico",
        -10.380072688377613
      ],
      [
        "▁acque",
        -10.380341170484389
      ],
      [
        "▁date",
        -10.38064953375929
      ],
      [
        "spir",
        -10.381423572753066
      ],
      [
        "▁vol",
        -10.382192787351544
      ],
      [
        "▁rive",
        -10.38225273756501
      ],
      [
        "▁canali",
        -10.382805806362368
      ],
      [
        "▁diffusione",
        -10.382815144860851
      ],
      [
        "▁relativo",
        -10.382896600989373
      ],
      [
        "▁corretto",
        -10.38291913143689
      ],
      [
        "▁rock",
        -10.383301940313157
      ],
      [
        "▁elezioni",
        -10.383795567483729
      ],
      [
        "tari",
        -10.384048032987543
      ],
      [
        "▁dimostra",
        -10.38412188141504
      ],
      [
        "▁carne",
        -10.385022618592204
      ],
      [
        "▁rap",
        -10.385088099827268
      ],
      [
        "gon",
        -10.386100840816642
      ],
      [
        "▁cane",
        -10.386257548230407
      ],
      [
        "acco",
        -10.38648061517646
      ],
      [
        "▁conseguenze",
        -10.386810219135182
      ],
      [
        "met",
        -10.386835979810003
      ],
      [
        "^",
        -10.387493207701496
      ],
      [
        "▁permettono",
        -10.387980928264737
      ],
      [
        "cur",
        -10.387983694255867
      ],
      [
        "▁minori",
        -10.387988296761696
      ],
      [
        "▁ripresa",
        -10.388328648884226
      ],
      [
        "▁quotidiano",
        -10.388432647051909
      ],
      [
        "▁singoli",
        -10.389223723337002
      ],
      [
        "▁qualora",
        -10.389757617160098
      ],
      [
        "▁eseguire",
        -10.391028656981582
      ],
      [
        "▁regime",
        -10.391106917715454
      ],
      [
        "▁wa",
        -10.391231637364422
      ],
      [
        "▁economiche",
        -10.39156970776218
      ],
      [
        "▁gratuitamente",
        -10.391599018572396
      ],
      [
        "▁veri",
        -10.392163041417628
      ],
      [
        "▁regista",
        -10.392256015340744
      ],
      [
        "▁seguenti",
        -10.39253041630685
      ],
      [
        "▁sembrano",
        -10.392676614234263
      ],
      [
        "▁svolto",
        -10.393050863119225
      ],
      [
        "▁simbolo",
        -10.39332540920068
      ],
      [
        "rig",
        -10.393579390714976
      ],
      [
        "situato",
        -10.393643330467643
      ],
      [
        "▁that",
        -10.39533391140906
      ],
      [
        "gro",
        -10.395497453873247
      ],
      [
        "▁́",
        -10.395614636888377
      ],
      [
        "▁indica",
        -10.395676615486844
      ],
      [
        "▁pronti",
        -10.395776242383848
      ],
      [
        "vin",
        -10.396530556648733
      ],
      [
        "tes",
        -10.396530675548258
      ],
      [
        "▁parlando",
        -10.39661842190432
      ],
      [
        "dotato",
        -10.398010437381377
      ],
      [
        "▁comfort",
        -10.398128674208758
      ],
      [
        "▁necessarie",
        -10.39823800524791
      ],
      [
        "▁montagna",
        -10.398682924215636
      ],
      [
        "▁copertura",
        -10.3989362765919
      ],
      [
        "pos",
        -10.39908574085814
      ],
      [
        "appartamento",
        -10.399147313828736
      ],
      [
        "▁stress",
        -10.399184051871472
      ],
      [
        "▁genova",
        -10.39939406232216
      ],
      [
        "▁risparmio",
        -10.399708688278734
      ],
      [
        "▁tagli",
        -10.399969690857368
      ],
      [
        "▁vuol",
        -10.401509994385943
      ],
      [
        "sso",
        -10.40190918899607
      ],
      [
        "▁uscita",
        -10.40205801549834
      ],
      [
        "▁decidere",
        -10.402648890588395
      ],
      [
        "▁doppia",
        -10.402964085671224
      ],
      [
        "▁pratiche",
        -10.402991484039642
      ],
      [
        "aggi",
        -10.403058614708012
      ],
      [
        "▁piatti",
        -10.403495620376246
      ],
      [
        "▁vittime",
        -10.404174907302506
      ],
      [
        "▁evidente",
        -10.404294711330287
      ],
      [
        "stro",
        -10.404365070626746
      ],
      [
        "▁mercoledì",
        -10.40521828948486
      ],
      [
        "▁procedure",
        -10.40545628564209
      ],
      [
        "atta",
        -10.4058171013866
      ],
      [
        "▁regionali",
        -10.406112964001856
      ],
      [
        "▁account",
        -10.40659078318802
      ],
      [
        "▁racconto",
        -10.406931205194862
      ],
      [
        "▁effettuato",
        -10.407023375806006
      ],
      [
        "▁pop",
        -10.407661960786792
      ],
      [
        "▁storica",
        -10.408130047820498
      ],
      [
        "▁dipende",
        -10.40827738610298
      ],
      [
        "ette",
        -10.408634149168993
      ],
      [
        "▁facciamo",
        -10.409172554285147
      ],
      [
        "▁reddito",
        -10.409474211476804
      ],
      [
        "<",
        -10.409483766644442
      ],
      [
        "▁silenzio",
        -10.409765503901047
      ],
      [
        "▁pezzo",
        -10.410008407916674
      ],
      [
        "pic",
        -10.41060943937618
      ],
      [
        "▁giornate",
        -10.41081703275442
      ],
      [
        "▁aziendale",
        -10.410934869347477
      ],
      [
        "▁responsabili",
        -10.410961890626636
      ],
      [
        "▁vantaggi",
        -10.411197855625742
      ],
      [
        "▁fratelli",
        -10.411766318028883
      ],
      [
        "▁esterno",
        -10.411908441405082
      ],
      [
        "▁rapidamente",
        -10.411973297862705
      ],
      [
        "▁pdf",
        -10.412062999843442
      ],
      [
        "ning",
        -10.412123584343217
      ],
      [
        "ordina",
        -10.412750872066487
      ],
      [
        "tano",
        -10.413309621178746
      ],
      [
        "▁martedì",
        -10.41331738146066
      ],
      [
        "mbr",
        -10.413568731965508
      ],
      [
        "orto",
        -10.413906650988851
      ],
      [
        "▁anch",
        -10.414053588272616
      ],
      [
        "▁disegno",
        -10.414154259276556
      ],
      [
        "▁privata",
        -10.414211081060444
      ],
      [
        "▁cambiamenti",
        -10.414602670799134
      ],
      [
        "▁elettrica",
        -10.41514265309948
      ],
      [
        "▁moderna",
        -10.415354197548764
      ],
      [
        "▁abb",
        -10.416109883254371
      ],
      [
        "stat",
        -10.41640800880389
      ],
      [
        "impianto",
        -10.416724190419764
      ],
      [
        "vamo",
        -10.417200142188143
      ],
      [
        "affi",
        -10.41745931540901
      ],
      [
        "▁consapevolezza",
        -10.417918208632608
      ],
      [
        "radi",
        -10.419275542091714
      ],
      [
        "▁fatica",
        -10.419296902335464
      ],
      [
        "logo",
        -10.419390025740976
      ],
      [
        "▁ferma",
        -10.419516250285136
      ],
      [
        "▁provinciale",
        -10.419575570270402
      ],
      [
        "▁tradizionali",
        -10.419654537207409
      ],
      [
        "▁voci",
        -10.41989881086225
      ],
      [
        "▁varietà",
        -10.419949687122845
      ],
      [
        "▁fungo",
        -10.420165213622631
      ],
      [
        "▁militare",
        -10.420308381339076
      ],
      [
        "▁cellulare",
        -10.42054911307578
      ],
      [
        "mmo",
        -10.420763965523346
      ],
      [
        "annu",
        -10.420913463297556
      ],
      [
        "▁bassi",
        -10.4209593008445
      ],
      [
        "▁geo",
        -10.421248282512032
      ],
      [
        "arla",
        -10.421707689035316
      ],
      [
        "▁ferro",
        -10.422115142541807
      ],
      [
        "▁bis",
        -10.422661209280538
      ],
      [
        "▁fate",
        -10.423070984263802
      ],
      [
        "▁trans",
        -10.423218882849683
      ],
      [
        "▁record",
        -10.423957135583809
      ],
      [
        "▁costituzione",
        -10.42460113414788
      ],
      [
        "▁colle",
        -10.42483870966426
      ],
      [
        "▁rappresentano",
        -10.42485671770589
      ],
      [
        "▁eliminare",
        -10.42550059768481
      ],
      [
        "▁perde",
        -10.425597531771752
      ],
      [
        "▁venga",
        -10.425833283434056
      ],
      [
        "anci",
        -10.426348468630248
      ],
      [
        "▁controlli",
        -10.426676114799394
      ],
      [
        "▁franco",
        -10.426876614830562
      ],
      [
        "▁reali",
        -10.427027863786352
      ],
      [
        "▁vice",
        -10.42709843720182
      ],
      [
        "opportunità",
        -10.427777574140794
      ],
      [
        "▁riceve",
        -10.428457010114922
      ],
      [
        "▁procura",
        -10.428830931560512
      ],
      [
        "▁chiude",
        -10.429368337928606
      ],
      [
        "▁trasmissione",
        -10.429549837871637
      ],
      [
        "▁mq",
        -10.429635737811944
      ],
      [
        "izzazione",
        -10.430309588127418
      ],
      [
        "▁riserva",
        -10.431084360903151
      ],
      [
        "▁dichiarazione",
        -10.431422647374548
      ],
      [
        "▁pin",
        -10.431696401657335
      ],
      [
        "assistenza",
        -10.432389492105726
      ],
      [
        "▁annunciato",
        -10.432523976194153
      ],
      [
        "▁ulteriore",
        -10.432637594741896
      ],
      [
        "▁londra",
        -10.433941210033256
      ],
      [
        "▁prenotazione",
        -10.434270714053834
      ],
      [
        "ride",
        -10.434489715622451
      ],
      [
        "▁entrambe",
        -10.434509025312702
      ],
      [
        "▁modifiche",
        -10.434930430497964
      ],
      [
        "lati",
        -10.435699430672043
      ],
      [
        "tato",
        -10.435748124728306
      ],
      [
        "comp",
        -10.437097592186388
      ],
      [
        "▁indietro",
        -10.437562661752972
      ],
      [
        "▁cottura",
        -10.437627079499189
      ],
      [
        "lly",
        -10.437961195042815
      ],
      [
        "▁maestro",
        -10.438388106593948
      ],
      [
        "unità",
        -10.438605288482982
      ],
      [
        "▁paga",
        -10.438673533177164
      ],
      [
        "▁segretario",
        -10.438806819396962
      ],
      [
        "acci",
        -10.43881318919576
      ],
      [
        "anza",
        -10.438840458612164
      ],
      [
        "▁agenti",
        -10.438917538256645
      ],
      [
        "installazione",
        -10.439033033496948
      ],
      [
        "▁sostanza",
        -10.439123240852547
      ],
      [
        "▁sottolinea",
        -10.439976349440286
      ],
      [
        "▁risoluzione",
        -10.440047007529945
      ],
      [
        "▁tipologia",
        -10.440547803294042
      ],
      [
        "▁sky",
        -10.44059619588542
      ],
      [
        "mor",
        -10.44093296752454
      ],
      [
        "▁collo",
        -10.440973891199064
      ],
      [
        "▁conosciuto",
        -10.441003256915614
      ],
      [
        "▁continuo",
        -10.4413581493643
      ],
      [
        "▁grasso",
        -10.441717189374067
      ],
      [
        "▁percentuale",
        -10.443322603059617
      ],
      [
        "▁previste",
        -10.443615268153932
      ],
      [
        "▁laurea",
        -10.44402077403588
      ],
      [
        "▁indirizzo",
        -10.44423536547077
      ],
      [
        "▁cani",
        -10.44427985931929
      ],
      [
        "▁gravidanza",
        -10.444368996436411
      ],
      [
        "▁desideri",
        -10.44510291427095
      ],
      [
        "bon",
        -10.445590281198031
      ],
      [
        "▁firma",
        -10.445733905003326
      ],
      [
        "▁partecipato",
        -10.445779444465012
      ],
      [
        "▁giorgio",
        -10.447170669451912
      ],
      [
        "▁finestra",
        -10.447279223949764
      ],
      [
        "▁calo",
        -10.447479699611758
      ],
      [
        "▁campione",
        -10.447943153808517
      ],
      [
        "▁croce",
        -10.44835145142738
      ],
      [
        "▁scoperto",
        -10.449386617174248
      ],
      [
        "▁apertura",
        -10.449392401475626
      ],
      [
        "▁corretta",
        -10.44942879571549
      ],
      [
        "▁contatti",
        -10.449663062396114
      ],
      [
        "graf",
        -10.450098151036
      ],
      [
        "▁mura",
        -10.450201498827084
      ],
      [
        "▁men",
        -10.450333538701862
      ],
      [
        "▁otto",
        -10.451087894914004
      ],
      [
        "▁messi",
        -10.451099424154242
      ],
      [
        "▁neve",
        -10.45116128133946
      ],
      [
        "▁applicazione",
        -10.451686419529308
      ],
      [
        "nzo",
        -10.451698383017
      ],
      [
        "▁minuto",
        -10.451826704353469
      ],
      [
        "▁giallo",
        -10.45207342420783
      ],
      [
        "fici",
        -10.452095196143842
      ],
      [
        "▁pian",
        -10.452136695844397
      ],
      [
        "▁seguendo",
        -10.452175203109771
      ],
      [
        "▁turno",
        -10.452237906080736
      ],
      [
        "▁fossero",
        -10.452497495909371
      ],
      [
        "▁lombardia",
        -10.452949794979167
      ],
      [
        "rum",
        -10.45364829422075
      ],
      [
        "▁bra",
        -10.45381972164046
      ],
      [
        "▁nuovamente",
        -10.453825604589294
      ],
      [
        "▁commento",
        -10.454779041721295
      ],
      [
        "▁diventato",
        -10.45481599588116
      ],
      [
        "▁vo",
        -10.454914824130402
      ],
      [
        "▁figlia",
        -10.45494562572407
      ],
      [
        "▁album",
        -10.45499703096987
      ],
      [
        "▁recenti",
        -10.455288864662228
      ],
      [
        "ker",
        -10.455669798506957
      ],
      [
        "▁clic",
        -10.45675561063742
      ],
      [
        "▁moderno",
        -10.45785929693583
      ],
      [
        "▁linguaggio",
        -10.4580513661725
      ],
      [
        "▁fasi",
        -10.458181310390538
      ],
      [
        "▁rivela",
        -10.458814023723514
      ],
      [
        "logi",
        -10.4589252303696
      ],
      [
        "▁consumatori",
        -10.459177466646354
      ],
      [
        "rich",
        -10.459594067907425
      ],
      [
        "▁cosi",
        -10.459851162383003
      ],
      [
        "▁reg",
        -10.459915900737164
      ],
      [
        "▁sensazione",
        -10.46003514255587
      ],
      [
        "▁familiari",
        -10.46056006568086
      ],
      [
        "▁arti",
        -10.460898082647551
      ],
      [
        "▁realizzata",
        -10.4609548241953
      ],
      [
        "cola",
        -10.460962559109875
      ],
      [
        "▁volto",
        -10.46100257368218
      ],
      [
        "ges",
        -10.461380951053972
      ],
      [
        "▁procedere",
        -10.461969135001157
      ],
      [
        "▁succede",
        -10.462144358242227
      ],
      [
        "▁riuscito",
        -10.462310233908722
      ],
      [
        "sano",
        -10.462759451383972
      ],
      [
        "▁mira",
        -10.463213120911364
      ],
      [
        "▁ristoranti",
        -10.463570109815691
      ],
      [
        "▁ingresso",
        -10.463603257972649
      ],
      [
        "abbiamo",
        -10.464094738936389
      ],
      [
        "▁strategie",
        -10.464181012555724
      ],
      [
        "▁militari",
        -10.464485891309778
      ],
      [
        "▁eco",
        -10.465139211570834
      ],
      [
        "▁amazon",
        -10.46514218607675
      ],
      [
        "▁gare",
        -10.465183544167312
      ],
      [
        "▁interessati",
        -10.465233023929573
      ],
      [
        "▁calabria",
        -10.465310341708188
      ],
      [
        "▁realizzati",
        -10.465494220447786
      ],
      [
        "▁aumenta",
        -10.465575913889214
      ],
      [
        "▁store",
        -10.465689665432157
      ],
      [
        "▁out",
        -10.466361664910814
      ],
      [
        "▁maggiormente",
        -10.4670526711622
      ],
      [
        "mma",
        -10.4673867990193
      ],
      [
        "▁morti",
        -10.46838568975444
      ],
      [
        "▁basi",
        -10.468809437760028
      ],
      [
        "▁cara",
        -10.46882987544412
      ],
      [
        "scri",
        -10.468952350704363
      ],
      [
        "▁zucchero",
        -10.469394468697027
      ],
      [
        "▁miglioramento",
        -10.469499627343271
      ],
      [
        "▁virus",
        -10.46954436005444
      ],
      [
        "feri",
        -10.470951886354802
      ],
      [
        "▁cari",
        -10.47137596338189
      ],
      [
        "▁visitatori",
        -10.472461922748376
      ],
      [
        "▁edifici",
        -10.472648531447518
      ],
      [
        "▁van",
        -10.47283633507014
      ],
      [
        "ndolo",
        -10.473896928744514
      ],
      [
        "▁bari",
        -10.474018402318498
      ],
      [
        "▁lezioni",
        -10.474098182214302
      ],
      [
        "▁play",
        -10.474818286685291
      ],
      [
        "▁familiare",
        -10.474857717793611
      ],
      [
        "bel",
        -10.47529513072856
      ],
      [
        "elenco",
        -10.476603393903348
      ],
      [
        "gian",
        -10.4771904405063
      ],
      [
        "erba",
        -10.477352564241366
      ],
      [
        "▁cassa",
        -10.47744177627176
      ],
      [
        "▁doccia",
        -10.47779172168836
      ],
      [
        "▁ger",
        -10.47783888547226
      ],
      [
        "▁macchine",
        -10.47803148661526
      ],
      [
        "▁straordinaria",
        -10.478138622333134
      ],
      [
        "▁determinato",
        -10.478658849535886
      ],
      [
        "▁composta",
        -10.478727244926295
      ],
      [
        "▁occasioni",
        -10.479269855260595
      ],
      [
        "▁gra",
        -10.479525562832816
      ],
      [
        "▁mac",
        -10.479881269684029
      ],
      [
        "▁fri",
        -10.480308750753103
      ],
      [
        "▁buone",
        -10.480515653737214
      ],
      [
        "▁consenso",
        -10.480772812028231
      ],
      [
        "vidi",
        -10.481640889887029
      ],
      [
        "▁dialogo",
        -10.482926742303777
      ],
      [
        "▁fratello",
        -10.483155311538184
      ],
      [
        "▁venire",
        -10.4831893106086
      ],
      [
        "▁streaming",
        -10.483347281040976
      ],
      [
        "▁russia",
        -10.483368023313574
      ],
      [
        "▁visite",
        -10.483516051091668
      ],
      [
        "▁voti",
        -10.483656455171673
      ],
      [
        "▁ottimi",
        -10.485236446160824
      ],
      [
        "kin",
        -10.486204067250217
      ],
      [
        "▁recensione",
        -10.487048199819508
      ],
      [
        "▁perciò",
        -10.487623779165228
      ],
      [
        "▁esami",
        -10.487836621158754
      ],
      [
[...]
